<pad>	0
</s>	0
<s>	0
<unk>	0
<|im_start|>	0
<|im_end|>	0
<think>	0
</think>	0
<tools>	0
</tools>	0
<tool_call>	0
</tool_call>	0
<tool_result>	0
</tool_result>	0
<context>	0
</context>	0
<image>	0
</image>	0
<speech>	0
</speech>	0
<tts>	0
</tts>	0
<imagen>	0
</imagen>	0
<extract>	0
</extract>	0
<schema>	0
</schema>	0
<0x00>	0
<0x01>	0
<0x02>	0
<0x03>	0
<0x04>	0
<0x05>	0
<0x06>	0
<0x07>	0
<0x08>	0
<0x09>	0
<0x0A>	0
<0x0B>	0
<0x0C>	0
<0x0D>	0
<0x0E>	0
<0x0F>	0
<0x10>	0
<0x11>	0
<0x12>	0
<0x13>	0
<0x14>	0
<0x15>	0
<0x16>	0
<0x17>	0
<0x18>	0
<0x19>	0
<0x1A>	0
<0x1B>	0
<0x1C>	0
<0x1D>	0
<0x1E>	0
<0x1F>	0
<0x20>	0
<0x21>	0
<0x22>	0
<0x23>	0
<0x24>	0
<0x25>	0
<0x26>	0
<0x27>	0
<0x28>	0
<0x29>	0
<0x2A>	0
<0x2B>	0
<0x2C>	0
<0x2D>	0
<0x2E>	0
<0x2F>	0
<0x30>	0
<0x31>	0
<0x32>	0
<0x33>	0
<0x34>	0
<0x35>	0
<0x36>	0
<0x37>	0
<0x38>	0
<0x39>	0
<0x3A>	0
<0x3B>	0
<0x3C>	0
<0x3D>	0
<0x3E>	0
<0x3F>	0
<0x40>	0
<0x41>	0
<0x42>	0
<0x43>	0
<0x44>	0
<0x45>	0
<0x46>	0
<0x47>	0
<0x48>	0
<0x49>	0
<0x4A>	0
<0x4B>	0
<0x4C>	0
<0x4D>	0
<0x4E>	0
<0x4F>	0
<0x50>	0
<0x51>	0
<0x52>	0
<0x53>	0
<0x54>	0
<0x55>	0
<0x56>	0
<0x57>	0
<0x58>	0
<0x59>	0
<0x5A>	0
<0x5B>	0
<0x5C>	0
<0x5D>	0
<0x5E>	0
<0x5F>	0
<0x60>	0
<0x61>	0
<0x62>	0
<0x63>	0
<0x64>	0
<0x65>	0
<0x66>	0
<0x67>	0
<0x68>	0
<0x69>	0
<0x6A>	0
<0x6B>	0
<0x6C>	0
<0x6D>	0
<0x6E>	0
<0x6F>	0
<0x70>	0
<0x71>	0
<0x72>	0
<0x73>	0
<0x74>	0
<0x75>	0
<0x76>	0
<0x77>	0
<0x78>	0
<0x79>	0
<0x7A>	0
<0x7B>	0
<0x7C>	0
<0x7D>	0
<0x7E>	0
<0x7F>	0
<0x80>	0
<0x81>	0
<0x82>	0
<0x83>	0
<0x84>	0
<0x85>	0
<0x86>	0
<0x87>	0
<0x88>	0
<0x89>	0
<0x8A>	0
<0x8B>	0
<0x8C>	0
<0x8D>	0
<0x8E>	0
<0x8F>	0
<0x90>	0
<0x91>	0
<0x92>	0
<0x93>	0
<0x94>	0
<0x95>	0
<0x96>	0
<0x97>	0
<0x98>	0
<0x99>	0
<0x9A>	0
<0x9B>	0
<0x9C>	0
<0x9D>	0
<0x9E>	0
<0x9F>	0
<0xA0>	0
<0xA1>	0
<0xA2>	0
<0xA3>	0
<0xA4>	0
<0xA5>	0
<0xA6>	0
<0xA7>	0
<0xA8>	0
<0xA9>	0
<0xAA>	0
<0xAB>	0
<0xAC>	0
<0xAD>	0
<0xAE>	0
<0xAF>	0
<0xB0>	0
<0xB1>	0
<0xB2>	0
<0xB3>	0
<0xB4>	0
<0xB5>	0
<0xB6>	0
<0xB7>	0
<0xB8>	0
<0xB9>	0
<0xBA>	0
<0xBB>	0
<0xBC>	0
<0xBD>	0
<0xBE>	0
<0xBF>	0
<0xC0>	0
<0xC1>	0
<0xC2>	0
<0xC3>	0
<0xC4>	0
<0xC5>	0
<0xC6>	0
<0xC7>	0
<0xC8>	0
<0xC9>	0
<0xCA>	0
<0xCB>	0
<0xCC>	0
<0xCD>	0
<0xCE>	0
<0xCF>	0
<0xD0>	0
<0xD1>	0
<0xD2>	0
<0xD3>	0
<0xD4>	0
<0xD5>	0
<0xD6>	0
<0xD7>	0
<0xD8>	0
<0xD9>	0
<0xDA>	0
<0xDB>	0
<0xDC>	0
<0xDD>	0
<0xDE>	0
<0xDF>	0
<0xE0>	0
<0xE1>	0
<0xE2>	0
<0xE3>	0
<0xE4>	0
<0xE5>	0
<0xE6>	0
<0xE7>	0
<0xE8>	0
<0xE9>	0
<0xEA>	0
<0xEB>	0
<0xEC>	0
<0xED>	0
<0xEE>	0
<0xEF>	0
<0xF0>	0
<0xF1>	0
<0xF2>	0
<0xF3>	0
<0xF4>	0
<0xF5>	0
<0xF6>	0
<0xF7>	0
<0xF8>	0
<0xF9>	0
<0xFA>	0
<0xFB>	0
<0xFC>	0
<0xFD>	0
<0xFE>	0
<0xFF>	0
en	-0
er	-1
▁t	-2
in	-3
":	-4
an	-5
on	-6
es	-7
ti	-8
he	-9
re	-10
,"	-11
▁a	-12
st	-13
or	-14
▁d	-15
":"	-16
","	-17
ar	-18
at	-19
ing	-20
me	-21
▁o	-22
tion	-23
▁s	-24
▁the	-25
ri	-26
▁w	-27
al	-28
▁b	-29
▁v	-30
▁c	-31
{"	-32
it	-33
el	-34
▁p	-35
is	-36
▁f	-37
ro	-38
le	-39
▁in	-40
▁m	-41
▁to	-42
":{"	-43
ed	-44
ou	-45
pe	-46
et	-47
ch	-48
and	-49
ption	-50
ame	-51
as	-52
▁e	-53
▁of	-54
cri	-55
▁de	-56
des	-57
▁g	-58
cription	-59
description	-60
ty	-61
ent	-62
▁h	-63
▁n	-64
us	-65
type	-66
ic	-67
ers	-68
▁and	-69
qu	-70
}}	-71
▁l	-72
il	-73
de	-74
▁is	-75
▁he	-76
.","	-77
ra	-78
ij	-79
▁th	-80
ist	-81
▁en	-82
▁van	-83
ol	-84
red	-85
id	-86
om	-87
ant	-88
um	-89
ct	-90
un	-91
ge	-92
ur	-93
str	-94
name	-95
requ	-96
▁k	-97
▁te	-98
▁'	-99
▁on	-100
▁z	-101
requi	-102
▁re	-103
ot	-104
ie	-105
required	-106
ig	-107
▁be	-108
ass	-109
▁for	-110
oor	-111
ve	-112
ut	-113
string	-114
ation	-115
▁st	-116
se	-117
ru	-118
▁het	-119
ay	-120
em	-121
▁y	-122
ul	-123
ate	-124
▁me	-125
user	-126
▁een	-127
par	-128
ver	-129
ow	-130
▁al	-131
ess	-132
▁I	-133
ce	-134
istant	-135
est	-136
assistant	-137
der	-138
▁or	-139
ters	-140
ak	-141
ly	-142
oo	-143
▁you	-144
},"	-145
am	-146
▁T	-147
aar	-148
per	-149
ameters	-150
▁A	-151
ter	-152
im	-153
th	-154
parameters	-155
ad	-156
▁S	-157
▁ver	-158
je	-159
if	-160
ab	-161
ir	-162
▁ge	-163
▁con	-164
te	-165
oc	-166
ac	-167
▁pro	-168
▁wh	-169
ith	-170
,{"	-171
▁mo	-172
gen	-173
▁it	-174
▁C	-175
ke	-176
▁that	-177
den	-178
op	-179
▁an	-180
ties	-181
pro	-182
▁as	-183
▁(	-184
▁om	-185
▁D	-186
▁with	-187
rom	-188
▁op	-189
."	-190
":[	-191
ere	-192
di	-193
ap	-194
rue	-195
▁voor	-196
▁le	-197
tie	-198
ken	-199
ents	-200
▁wor	-201
ven	-202
▁from	-203
▁1	-204
▁M	-205
▁r	-206
▁H	-207
age	-208
ag	-209
ijn	-210
▁u	-211
▁are	-212
"]	-213
":["	-214
▁B	-215
true	-216
',	-217
os	-218
The	-219
ill	-220
pl	-221
og	-222
[{"	-223
▁ex	-224
▁P	-225
ht	-226
ich	-227
▁2	-228
art	-229
alse	-230
end	-231
▁com	-232
ik	-233
ber	-234
arg	-235
▁ne	-236
▁we	-237
▁dat	-238
Wh	-239
du	-240
eren	-241
oun	-242
ma	-243
ort	-244
ity	-245
▁die	-246
00	-247
perties	-248
ang	-249
ome	-250
▁su	-251
▁ch	-252
▁E	-253
od	-254
▁pl	-255
properties	-256
▁se	-257
false	-258
}},{"	-259
oe	-260
act	-261
ci	-262
ten	-263
able	-264
ion	-265
}}}	-266
}},"	-267
▁zijn	-268
ment	-269
ine	-270
ast	-271
▁at	-272
rij	-273
ure	-274
▁met	-275
ld	-276
ject	-277
che	-278
▁can	-279
ave	-280
ze	-281
ult	-282
▁aan	-283
all	-284
▁je	-285
▁us	-286
▁do	-287
}}]	-288
ff	-289
con	-290
ds	-291
▁spe	-292
▁sh	-293
one	-294
▁un	-295
▁ac	-296
ens	-297
dic	-298
▁by	-299
▁not	-300
xt	-301
out	-302
▁N	-303
our	-304
▁G	-305
▁W	-306
ice	-307
ell	-308
▁R	-309
▁j	-310
▁F	-311
ach	-312
elij	-313
▁was	-314
▁als	-315
we	-316
umber	-317
ain	-318
uments	-319
tic	-320
ite	-321
ans	-322
ob	-323
ele	-324
▁your	-325
ind	-326
ep	-327
arguments	-328
king	-329
ight	-330
vel	-331
▁L	-332
▁over	-333
ated	-334
ard	-335
▁cont	-336
ne	-337
tif	-338
ide	-339
▁"	-340
}}},{"	-341
."},"	-342
min	-343
ings	-344
ingen	-345
to	-346
cl	-347
iet	-348
▁ab	-349
ime	-350
ud	-351
▁have	-352
orm	-353
▁qu	-354
ust	-355
ally	-356
▁O	-357
▁ro	-358
pp	-359
▁The	-360
heid	-361
ied	-362
ction	-363
ef	-364
nen	-365
erv	-366
yst	-367
."}},"	-368
are	-369
ould	-370
▁this	-371
ount	-372
av	-373
▁ad	-374
mo	-375
02	-376
ue	-377
lo	-378
ks	-379
▁res	-380
▁geb	-381
▁sp	-382
▁-	-383
ear	-384
▁all	-385
What	-386
ale	-387
dict	-388
▁im	-389
ies	-390
▁per	-391
get	-392
pen	-393
▁dis	-394
ater	-395
urr	-396
▁time	-397
ake	-398
date	-399
ck	-400
ger	-401
ier	-402
res	-403
ack	-404
ail	-405
ub	-406
ati	-407
time	-408
als	-409
▁waar	-410
▁bet	-411
▁if	-412
"]}},{"	-413
ile	-414
▁vol	-415
iv	-416
▁V	-417
▁Th	-418
atie	-419
▁no	-420
▁name	-421
utes	-422
cif	-423
▁In	-424
▁kun	-425
ther	-426
ost	-427
ase	-428
▁will	-429
her	-430
ystem	-431
ple	-432
ory	-433
ry	-434
▁they	-435
ore	-436
ia	-437
set	-438
ood	-439
▁man	-440
▁gro	-441
mer	-442
iden	-443
▁uit	-444
ong	-445
cre	-446
be	-447
object	-448
ord	-449
▁J	-450
ary	-451
▁U	-452
▁their	-453
▁specif	-454
ress	-455
▁go	-456
▁ar	-457
▁ze	-458
ery	-459
up	-460
ration	-461
ance	-462
eld	-463
ien	-464
ert	-465
pt	-466
ste	-467
ble	-468
▁min	-469
elijk	-470
▁ri	-471
ication	-472
ug	-473
▁so	-474
▁door	-475
ll	-476
port	-477
elen	-478
▁De	-479
ph	-480
ire	-481
fa	-482
▁bel	-483
aat	-484
'.","	-485
▁up	-486
▁gebru	-487
▁but	-488
urn	-489
iz	-490
ces	-491
aus	-492
▁onder	-493
int	-494
ptional	-495
▁gen	-496
lij	-497
▁about	-498
cy	-499
Wat	-500
ive	-501
ip	-502
▁hel	-503
ond	-504
▁loc	-505
▁some	-506
enum	-507
▁par	-508
number	-509
▁sch	-510
▁K	-511
▁3	-512
▁af	-513
▁more	-514
▁one	-515
▁tra	-516
De	-517
▁kan	-518
▁bij	-519
▁curr	-520
wer	-521
com	-522
ren	-523
ays	-524
▁wer	-525
▁cl	-526
ild	-527
ous	-528
▁hun	-529
ems	-530
ook	-531
▁ph	-532
cht	-533
ok	-534
arm	-535
ode	-536
rans	-537
▁word	-538
▁out	-539
tiv	-540
vice	-541
ign	-542
ike	-543
▁fe	-544
▁has	-545
▁Y	-546
-0	-547
▁niet	-548
▁which	-549
▁inter	-550
▁worden	-551
▁get	-552
loc	-553
▁inf	-554
esch	-555
wor	-556
-1	-557
uman	-558
ool	-559
▁pe	-560
ose	-561
cent	-562
"}}]	-563
▁tot	-564
ek	-565
▁current	-566
tive	-567
▁gebruik	-568
▁need	-569
▁ma	-570
arch	-571
▁my	-572
▁comp	-573
ende	-574
▁->	-575
ange	-576
▁kunnen	-577
essage	-578
ffe	-579
cess	-580
▁202	-581
els	-582
▁text	-583
ning	-584
app	-585
ram	-586
lean	-587
uur	-588
oll	-589
ople	-590
ft	-591
▁pre	-592
sen	-593
ght	-594
▁wordt	-595
ark	-596
ont	-597
▁ont	-598
elf	-599
▁pers	-600
vol	-601
own	-602
▁er	-603
uw	-604
fault	-605
▁vers	-606
▁date	-607
iteit	-608
aal	-609
atch	-610
kst	-611
und	-612
ese	-613
ace	-614
▁ke	-615
Optional	-616
In	-617
sh	-618
ting	-619
▁set	-620
sp	-621
▁new	-622
▁aut	-623
▁str	-624
ause	-625
▁when	-626
fer	-627
ial	-628
▁ve	-629
tification	-630
reat	-631
▁Het	-632
led	-633
erd	-634
ische	-635
▁tekst	-636
▁them	-637
wij	-638
▁heb	-639
cont	-640
▁zo	-641
▁also	-642
list	-643
▁el	-644
ray	-645
▁stated	-646
▁list	-647
..	-648
mail	-649
▁who	-650
very	-651
▁ap	-652
system	-653
inte	-654
olog	-655
▁incl	-656
ree	-657
▁5	-658
▁comm	-659
▁people	-660
ink	-661
▁pri	-662
action	-663
af	-664
val	-665
vo	-666
▁her	-667
ude	-668
▁des	-669
01	-670
▁volgen	-671
ature	-672
ateg	-673
iss	-674
▁St	-675
integer	-676
vent	-677
▁kn	-678
▁what	-679
▁ter	-680
▁stud	-681
elijke	-682
▁produ	-683
dia	-684
ib	-685
▁app	-686
▁ra	-687
igh	-688
ates	-689
no	-690
▁like	-691
cord	-692
▁iden	-693
.,	-694
ish	-695
del	-696
▁other	-697
vid	-698
▁beh	-699
la	-700
items	-701
▁how	-702
aken	-703
boo	-704
omen	-705
▁It	-706
▁Ch	-707
ilter	-708
▁beg	-709
wo	-710
▁form	-711
▁Z	-712
▁user	-713
▁wat	-714
kt	-715
▁play	-716
▁belang	-717
▁contact	-718
Het	-719
▁there	-720
▁am	-721
St	-722
oud	-723
▁hoo	-724
ys	-725
▁naar	-726
start	-727
ick	-728
▁work	-729
minder	-730
▁4	-731
default	-732
▁cons	-733
ise	-734
▁du	-735
eft	-736
":[]	-737
).	-738
▁best	-739
minutes	-740
co	-741
ations	-742
▁off	-743
▁reg	-744
les	-745
men	-746
air	-747
oth	-748
▁deze	-749
ound	-750
▁any	-751
human	-752
text	-753
tim	-754
ctie	-755
":"'	-756
▁belangrij	-757
ical	-758
ors	-759
▁water	-760
▁bec	-761
eg	-762
ben	-763
ull	-764
ely	-765
▁query	-766
▁An	-767
aten	-768
▁identif	-769
▁vo	-770
▁ty	-771
tit	-772
oint	-773
boolean	-774
atter	-775
▁verb	-776
ual	-777
}}}]	-778
).","	-779
▁want	-780
room	-781
▁dif	-782
▁cre	-783
ination	-784
▁specific	-785
tions	-786
irst	-787
rie	-788
aan	-789
ron	-790
erde	-791
▁sub	-792
Set	-793
'.	-794
▁che	-795
▁number	-796
▁year	-797
tis	-798
▁than	-799
chn	-800
ody	-801
▁col	-802
▁add	-803
oord	-804
▁help	-805
ym	-806
▁into	-807
▁level	-808
tij	-809
form	-810
play	-811
ving	-812
ari	-813
▁ret	-814
oss	-815
ons	-816
▁had	-817
▁trans	-818
ugh	-819
▁cal	-820
▁use	-821
▁zoals	-822
day	-823
▁fl	-824
ën	-825
ence	-826
":{	-827
ves	-828
▁minutes	-829
▁hebben	-830
▁besch	-831
ric	-832
ness	-833
▁start	-834
▁ag	-835
▁our	-836
uit	-837
▁bas	-838
▁device	-839
▁just	-840
▁his	-841
▁bl	-842
arget	-843
onder	-844
icht	-845
▁car	-846
▁its	-847
▁tij	-848
ating	-849
cip	-850
"]}}]	-851
ank	-852
eng	-853
▁would	-854
earch	-855
stand	-856
▁email	-857
alth	-858
array	-859
atus	-860
▁bed	-861
▁were	-862
▁0	-863
aak	-864
tra	-865
▁does	-866
▁ook	-867
▁read	-868
perature	-869
▁versch	-870
▁may	-871
osi	-872
▁most	-873
▁det	-874
▁should	-875
gram	-876
wn	-877
▁8	-878
▁ass	-879
▁moet	-880
org	-881
work	-882
▁la	-883
uc	-884
▁rel	-885
ted	-886
oek	-887
zen	-888
▁heeft	-889
▁effe	-890
▁make	-891
"]},"	-892
ute	-893
Th	-894
ath	-895
cted	-896
▁only	-897
ient	-898
ume	-899
▁been	-900
uri	-901
ss	-902
▁alle	-903
count	-904
fd	-905
fore	-906
▁fun	-907
erg	-908
▁child	-909
request	-910
of	-911
oon	-912
▁na	-913
▁10	-914
ower	-915
ige	-916
"},"	-917
▁sc	-918
▁first	-919
ms	-920
▁tim	-921
▁tem	-922
":[]}},{"	-923
old	-924
▁message	-925
▁Al	-926
iqu	-927
kken	-928
▁This	-929
▁sl	-930
loat	-931
not	-932
dition	-933
▁know	-934
▁belangrijk	-935
contact	-936
▁thro	-937
dat	-938
▁co	-939
line	-940
:00	-941
abled	-942
▁under	-943
▁6	-944
▁person	-945
▁data	-946
ession	-947
▁ob	-948
▁used	-949
float	-950
ours	-951
udi	-952
202	-953
uch	-954
';	-955
ew	-956
▁–	-957
▁19	-958
ize	-959
gle	-960
ages	-961
▁using	-962
sch	-963
rol	-964
▁hand	-965
abel	-966
cul	-967
read	-968
▁pres	-969
▁even	-970
door	-971
its	-972
tig	-973
▁hoofd	-974
▁system	-975
▁val	-976
▁soc	-977
▁these	-978
ts	-979
▁many	-980
Name	-981
ities	-982
▁del	-983
lock	-984
ids	-985
▁bu	-986
enti	-987
for	-988
ieden	-989
▁maar	-990
ween	-991
▁two	-992
▁location	-993
oto	-994
▁pr	-995
▁result	-996
▁pass	-997
oy	-998
ann	-999
ily	-1000
Wel	-1001
▁erv	-1002
elt	-1003
ouw	-1004
ative	-1005
▁proble	-1006
▁because	-1007
▁through	-1008
▁tri	-1009
▁dan	-1010
▁serv	-1011
▁specified	-1012
ife	-1013
▁mon	-1014
ering	-1015
▁end	-1016
▁gez	-1017
iew	-1018
ex	-1019
▁back	-1020
▁sm	-1021
▁activ	-1022
uring	-1023
ures	-1024
▁every	-1025
▁techn	-1026
▁then	-1027
▁between	-1028
▁call	-1029
duration	-1030
▁men	-1031
aking	-1032
▁mens	-1033
▁after	-1034
vers	-1035
ubl	-1036
enten	-1037
gh	-1038
gan	-1039
▁We	-1040
deren	-1041
▁way	-1042
sub	-1043
30	-1044
How	-1045
ency	-1046
"}},"	-1047
igen	-1048
creen	-1049
▁ben	-1050
round	-1051
▁don	-1052
▁fin	-1053
▁hoe	-1054
▁exp	-1055
waar	-1056
▁meer	-1057
ollow	-1058
io	-1059
▁dire	-1060
▁lang	-1061
▁verschill	-1062
cording	-1063
thing	-1064
enabled	-1065
fl	-1066
YY	-1067
▁lear	-1068
ful	-1069
iven	-1070
▁exper	-1071
),	-1072
▁bo	-1073
▁gra	-1074
▁room	-1075
▁code	-1076
▁7	-1077
lijk	-1078
▁inv	-1079
ivers	-1080
▁before	-1081
▁request	-1082
▁part	-1083
Hoe	-1084
chedu	-1085
▁where	-1086
ions	-1087
pre	-1088
ility	-1089
▁comple	-1090
▁kl	-1091
pri	-1092
▁ged	-1093
ced	-1094
do	-1095
Re	-1096
ser	-1097
ular	-1098
baar	-1099
▁such	-1100
ash	-1101
feren	-1102
cts	-1103
▁fact	-1104
▁ID	-1105
umm	-1106
ually	-1107
iek	-1108
ouden	-1109
ique	-1110
ins	-1111
ategory	-1112
gg	-1113
-2	-1114
▁format	-1115
ues	-1116
▁sn	-1117
▁En	-1118
aties	-1119
ather	-1120
▁di	-1121
ible	-1122
▁mark	-1123
lijke	-1124
ner	-1125
▁zich	-1126
▁gu	-1127
▁day	-1128
▁bre	-1129
▁prof	-1130
▁could	-1131
▁high	-1132
▁supp	-1133
ideo	-1134
▁ess	-1135
ete	-1136
amer	-1137
off	-1138
kel	-1139
ough	-1140
▁tool	-1141
▁cor	-1142
tem	-1143
ooking	-1144
log	-1145
ments	-1146
▁school	-1147
back	-1148
alen	-1149
imit	-1150
▁em	-1151
▁verschillende	-1152
▁each	-1153
▁search	-1154
▁see	-1155
▁given	-1156
▁duration	-1157
au	-1158
geb	-1159
aren	-1160
▁health	-1161
mode	-1162
ctions	-1163
▁He	-1164
ix	-1165
right	-1166
▁int	-1167
amp	-1168
▁gener	-1169
.0	-1170
any	-1171
velop	-1172
▁commun	-1173
▁veel	-1174
email	-1175
▁andere	-1176
▁ik	-1177
▁Un	-1178
▁mode	-1179
▁meest	-1180
cal	-1181
▁red	-1182
▁plan	-1183
▁well	-1184
row	-1185
open	-1186
other	-1187
▁You	-1188
▁sk	-1189
▁vis	-1190
wik	-1191
ality	-1192
loed	-1193
fe	-1194
yn	-1195
iken	-1196
▁return	-1197
erm	-1198
▁mog	-1199
ring	-1200
▁secon	-1201
ellen	-1202
▁wri	-1203
▁show	-1204
▁find	-1205
▁being	-1206
message	-1207
▁fam	-1208
▁count	-1209
ussen	-1210
oren	-1211
000	-1212
▁false	-1213
▁open	-1214
▁filter	-1215
▁notification	-1216
▁differ	-1217
heden	-1218
▁she	-1219
pass	-1220
▁If	-1221
"]}},"	-1222
▁did	-1223
▁nie	-1224
▁ru	-1225
▁ed	-1226
▁Wh	-1227
10	-1228
device	-1229
▁et	-1230
istory	-1231
ax	-1232
chedule	-1233
notification	-1234
ines	-1235
appen	-1236
▁type	-1237
til	-1238
hether	-1239
leep	-1240
12	-1241
aker	-1242
▁main	-1243
ants	-1244
▁volgende	-1245
▁sim	-1246
aid	-1247
Welke	-1248
wal	-1249
▁es	-1250
▁gl	-1251
▁net	-1252
part	-1253
▁organ	-1254
▁posi	-1255
▁hu	-1256
▁pol	-1257
▁dra	-1258
▁gebruikt	-1259
▁different	-1260
tings	-1261
▁[	-1262
▁leven	-1263
Get	-1264
▁home	-1265
vi	-1266
▁body	-1267
spe	-1268
ational	-1269
▁long	-1270
ker	-1271
▁down	-1272
▁ide	-1273
itle	-1274
innen	-1275
aring	-1276
bo	-1277
search	-1278
ian	-1279
ieke	-1280
▁indi	-1281
▁inform	-1282
amen	-1283
5-0	-1284
ffic	-1285
▁maken	-1286
cial	-1287
cis	-1288
eting	-1289
ved	-1290
rouw	-1291
▁pra	-1292
geven	-1293
▁land	-1294
ove	-1295
ever	-1296
query	-1297
Start	-1298
eds	-1299
sl	-1300
dige	-1301
▁take	-1302
▁ele	-1303
▁program	-1304
▁follow	-1305
ward	-1306
ade	-1307
▁key	-1308
▁top	-1309
▁much	-1310
attery	-1311
▁import	-1312
▁check	-1313
by	-1314
ock	-1315
▁sur	-1316
An	-1317
urs	-1318
▁mensen	-1319
▁address	-1320
▁verh	-1321
▁dit	-1322
dig	-1323
En	-1324
oem	-1325
aam	-1326
▁goed	-1327
go	-1328
▁includ	-1329
▁12	-1330
kom	-1331
ply	-1332
▁develop	-1333
▁years	-1334
▁201	-1335
▁mil	-1336
▁identifier	-1337
ices	-1338
uage	-1339
tige	-1340
▁conf	-1341
▁mus	-1342
▁good	-1343
▁exam	-1344
ensch	-1345
▁disable	-1346
uct	-1347
50	-1348
▁right	-1349
▁volgens	-1350
level	-1351
▁life	-1352
acht	-1353
▁own	-1354
▁On	-1355
ource	-1356
sk	-1357
ution	-1358
location	-1359
▁bev	-1360
bers	-1361
bs	-1362
▁Re	-1363
iod	-1364
▁students	-1365
let	-1366
▁amount	-1367
ement	-1368
▁very	-1369
itch	-1370
▁ear	-1371
add	-1372
▁9	-1373
cle	-1374
▁Pro	-1375
▁sign	-1376
▁reminder	-1377
Number	-1378
trans	-1379
▁media	-1380
▁pop	-1381
the	-1382
▁true	-1383
List	-1384
tle	-1385
▁Amer	-1386
▁event	-1387
ason	-1388
Ret	-1389
▁same	-1390
iti	-1391
ining	-1392
Waar	-1393
▁now	-1394
▁sym	-1395
uren	-1396
▁act	-1397
▁Deze	-1398
way	-1399
ah	-1400
▁sol	-1401
gro	-1402
▁individ	-1403
▁order	-1404
▁toe	-1405
ength	-1406
media	-1407
▁bedrij	-1408
▁rest	-1409
▁tussen	-1410
ories	-1411
▁run	-1412
▁test	-1413
▁information	-1414
arge	-1415
orgen	-1416
▁temperature	-1417
▁publ	-1418
▁waardoor	-1419
▁meth	-1420
mon	-1421
▁fil	-1422
medi	-1423
...	-1424
▁suc	-1425
▁dest	-1426
▁world	-1427
riend	-1428
▁target	-1429
title	-1430
ïn	-1431
▁during	-1432
If	-1433
▁process	-1434
▁verbet	-1435
itted	-1436
▁doel	-1437
hor	-1438
▁energ	-1439
akes	-1440
iness	-1441
uk	-1442
▁20	-1443
▁resp	-1444
dens	-1445
▁those	-1446
bed	-1447
Which	-1448
▁stop	-1449
▁recent	-1450
hed	-1451
curr	-1452
▁dist	-1453
cept	-1454
emen	-1455
▁direct	-1456
ris	-1457
▁real	-1458
▁av	-1459
gre	-1460
ran	-1461
ets	-1462
▁ontwik	-1463
view	-1464
▁mem	-1465
cer	-1466
ator	-1467
▁group	-1468
amera	-1469
▁place	-1470
▁imp	-1471
ondheid	-1472
▁point	-1473
▁lit	-1474
inter	-1475
gt	-1476
uss	-1477
check	-1478
▁while	-1479
▁ent	-1480
▁ins	-1481
ars	-1482
▁medic	-1483
▁expl	-1484
▁light	-1485
wh	-1486
▁product	-1487
Ad	-1488
▁think	-1489
bl	-1490
delen	-1491
▁inst	-1492
15	-1493
45	-1494
▁pay	-1495
▁uw	-1496
ummary	-1497
bare	-1498
phone	-1499
▁project	-1500
▁item	-1501
dest	-1502
On	-1503
ames	-1504
It	-1505
▁including	-1506
cor	-1507
▁eer	-1508
ps	-1509
▁geen	-1510
▁kle	-1511
eps	-1512
▁Dit	-1513
ene	-1514
create	-1515
bre	-1516
▁tijd	-1517
ument	-1518
▁cent	-1519
tical	-1520
▁class	-1521
▁helpen	-1522
tri	-1523
light	-1524
chter	-1525
word	-1526
▁title	-1527
tische	-1528
▁pot	-1529
▁option	-1530
▁post	-1531
Un	-1532
ctive	-1533
▁nat	-1534
oemd	-1535
entie	-1536
ief	-1537
▁less	-1538
rand	-1539
▁tegen	-1540
Een	-1541
▁include	-1542
▁werk	-1543
▁stand	-1544
anne	-1545
▁def	-1546
▁$	-1547
tool	-1548
▁ste	-1549
sten	-1550
▁ser	-1551
status	-1552
ina	-1553
▁—	-1554
▁locale	-1555
▁last	-1556
land	-1557
True	-1558
▁children	-1559
wijl	-1560
imum	-1561
▁And	-1562
MM	-1563
Is	-1564
▁optional	-1565
ware	-1566
▁anal	-1567
ails	-1568
ared	-1569
▁provid	-1570
▁bes	-1571
▁sti	-1572
woord	-1573
▁mogelijk	-1574
irm	-1575
van	-1576
▁ple	-1577
oggle	-1578
▁15	-1579
iving	-1580
.5	-1581
▁book	-1582
▁twe	-1583
▁important	-1584
▁zelf	-1585
filter	-1586
eling	-1587
▁screen	-1588
put	-1589
ider	-1590
Search	-1591
ural	-1592
over	-1593
▁note	-1594
serv	-1595
ending	-1596
anneer	-1597
▁turn	-1598
▁Een	-1599
▁team	-1600
ream	-1601
Al	-1602
▁said	-1603
ële	-1604
ilig	-1605
▁status	-1606
▁line	-1607
▁vari	-1608
▁They	-1609
▁around	-1610
▁both	-1611
▁genoemd	-1612
▁ques	-1613
▁sit	-1614
aving	-1615
▁found	-1616
omm	-1617
ards	-1618
▁care	-1619
▁18	-1620
racht	-1621
▁phone	-1622
▁typ	-1623
▁battery	-1624
▁bus	-1625
ults	-1626
ized	-1627
▁arti	-1628
"],"	-1629
ster	-1630
▁gem	-1631
▁persoon	-1632
value	-1633
code	-1634
udio	-1635
ology	-1636
Con	-1637
▁incre	-1638
cti	-1639
▁30	-1640
voor	-1641
zoek	-1642
▁mater	-1643
amount	-1644
ital	-1645
}]	-1646
▁bieden	-1647
ulti	-1648
▁timer	-1649
▁alleen	-1650
SO	-1651
toggle	-1652
endar	-1653
▁human	-1654
pect	-1655
▁i	-1656
vert	-1657
▁bere	-1658
ocus	-1659
▁week	-1660
▁appl	-1661
cast	-1662
▁hij	-1663
ustom	-1664
stop	-1665
ict	-1666
▁experien	-1667
▁cap	-1668
ctor	-1669
▁present	-1670
▁look	-1671
net	-1672
▁video	-1673
rag	-1674
▁air	-1675
ET	-1676
▁again	-1677
uwe	-1678
▁gebruiken	-1679
ases	-1680
aw	-1681
destination	-1682
▁gel	-1683
"}},{"	-1684
Qu	-1685
▁Ze	-1686
ince	-1687
▁service	-1688
▁destination	-1689
We	-1690
Whether	-1691
file	-1692
rightness	-1693
▁food	-1694
rit	-1695
gency	-1696
▁lead	-1697
20	-1698
komen	-1699
rop	-1700
elling	-1701
▁dri	-1702
▁bro	-1703
én	-1704
▁cult	-1705
subject	-1706
▁support	-1707
▁days	-1708
▁haar	-1709
▁verk	-1710
iën	-1711
produ	-1712
Ch	-1713
▁Be	-1714
▁say	-1715
iron	-1716
▁How	-1717
ext	-1718
▁lot	-1719
▁colle	-1720
eem	-1721
▁change	-1722
▁period	-1723
anten	-1724
beeld	-1725
sc	-1726
▁kunt	-1727
unit	-1728
ips	-1729
▁omitted	-1730
▁kind	-1731
▁Sh	-1732
az	-1733
▁100	-1734
":{}},{"	-1735
▁him	-1736
▁gezondheid	-1737
▁AI	-1738
tics	-1739
▁limit	-1740
▁For	-1741
ragen	-1742
▁enable	-1743
aily	-1744
▁short	-1745
match	-1746
)."},"	-1747
▁might	-1748
▁teach	-1749
▁wel	-1750
ags	-1751
vis	-1752
lay	-1753
▁sens	-1754
ased	-1755
▁online	-1756
▁next	-1757
▁pur	-1758
▁made	-1759
ieve	-1760
comm	-1761
send	-1762
▁wet	-1763
bum	-1764
odig	-1765
ius	-1766
ailable	-1767
aur	-1768
▁value	-1769
1.	-1770
▁Ar	-1771
cc	-1772
ited	-1773
jes	-1774
tijd	-1775
▁verand	-1776
▁percent	-1777
zien	-1778
rate	-1779
▁control	-1780
ouse	-1781
▁things	-1782
ics	-1783
▁terwijl	-1784
▁too	-1785
▁Als	-1786
cipient	-1787
▁understand	-1788
allen	-1789
med	-1790
▁still	-1791
ches	-1792
▁power	-1793
ologie	-1794
▁ref	-1795
bol	-1796
▁alarm	-1797
":{},"	-1798
rest	-1799
atform	-1800
onden	-1801
arri	-1802
order	-1803
oms	-1804
ways	-1805
dis	-1806
gl	-1807
pose	-1808
▁wereld	-1809
▁month	-1810
▁research	-1811
▁must	-1812
ats	-1813
▁Ge	-1814
▁Americ	-1815
▁allow	-1816
▁iss	-1817
conom	-1818
▁poss	-1819
inden	-1820
▁tijdens	-1821
ront	-1822
▁chang	-1823
ai	-1824
ization	-1825
uele	-1826
▁social	-1827
▁Def	-1828
ee	-1829
▁2026	-1830
▁something	-1831
lu	-1832
▁learn	-1833
ross	-1834
▁jaar	-1835
▁conne	-1836
▁moeten	-1837
▁autom	-1838
▁eas	-1839
oeken	-1840
iding	-1841
▁vorm	-1842
▁mention	-1843
tern	-1844
ident	-1845
▁keep	-1846
▁action	-1847
▁leer	-1848
▁zorg	-1849
▁content	-1850
▁appro	-1851
range	-1852
▁vaak	-1853
steun	-1854
Sh	-1855
▁items	-1856
▁finan	-1857
kend	-1858
PI	-1859
▁Sp	-1860
▁att	-1861
▁via	-1862
chten	-1863
ote	-1864
ader	-1865
ask	-1866
▁aant	-1867
oen	-1868
body	-1869
▁But	-1870
▁samen	-1871
▁log	-1872
▁sugg	-1873
▁educ	-1874
culate	-1875
ately	-1876
▁without	-1877
▁match	-1878
▁omdat	-1879
category	-1880
▁great	-1881
pm	-1882
▁dep	-1883
▁é	-1884
▁exist	-1885
▁going	-1886
gel	-1887
▁lu	-1888
timer	-1889
deel	-1890
less	-1891
erk	-1892
▁ing	-1893
ference	-1894
ills	-1895
temperature	-1896
Che	-1897
▁let	-1898
ruk	-1899
▁disc	-1900
▁often	-1901
▁gew	-1902
▁mid	-1903
▁bep	-1904
▁kin	-1905
▁cour	-1906
▁report	-1907
▁small	-1908
No	-1909
▁gesch	-1910
▁doc	-1911
▁verl	-1912
por	-1913
man	-1914
▁three	-1915
__	-1916
DD	-1917
:30	-1918
▁contin	-1919
werk	-1920
iel	-1921
ertain	-1922
▁based	-1923
▁staat	-1924
▁den	-1925
▁send	-1926
▁equ	-1927
erson	-1928
acter	-1929
▁wil	-1930
▁subject	-1931
▁hy	-1932
▁another	-1933
▁pati	-1934
▁profession	-1935
2.	-1936
▁As	-1937
▁better	-1938
▁manier	-1939
ental	-1940
▁=	-1941
▁prote	-1942
\"	-1943
▁author	-1944
urg	-1945
▁design	-1946
▁focus	-1947
▁multi	-1948
▁blij	-1949
▁really	-1950
cise	-1951
akt	-1952
▁card	-1953
cies	-1954
▁study	-1955
ling	-1956
▁cri	-1957
matie	-1958
ined	-1959
▁try	-1960
iedt	-1961
ral	-1962
label	-1963
▁language	-1964
▁basis	-1965
▁free	-1966
ns	-1967
aps	-1968
eur	-1969
ush	-1970
atis	-1971
▁file	-1972
▁dig	-1973
Retrie	-1974
▁alert	-1975
resh	-1976
▁ev	-1977
▁goal	-1978
ysteem	-1979
▁available	-1980
▁nodig	-1981
book	-1982
▁verbeteren	-1983
▁due	-1984
▁één	-1985
▁grow	-1986
hours	-1987
▁common	-1988
▁Le	-1989
ogra	-1990
▁ho	-1991
This	-1992
ging	-1993
ression	-1994
viron	-1995
ruik	-1996
tivity	-1997
▁saf	-1998
▁nieuwe	-1999
▁leg	-2000
alk	-2001
rid	-2002
▁learning	-2003
▁war	-2004
▁extra	-2005
▁indu	-2006
▁No	-2007
ism	-2008
▁There	-2009
▁onge	-2010
▁interest	-2011
▁area	-2012
▁ervoor	-2013
▁mean	-2014
▁hours	-2015
▁feel	-2016
▁example	-2017
▁snel	-2018
gens	-2019
ico	-2020
scription	-2021
▁results	-2022
▁gar	-2023
icro	-2024
elsius	-2025
▁lo	-2026
▁business	-2027
words	-2028
just	-2029
▁prov	-2030
ploy	-2031
▁Af	-2032
▁Defa	-2033
▁mom	-2034
▁cy	-2035
▁strateg	-2036
avig	-2037
▁needs	-2038
lear	-2039
▁lich	-2040
▁biedt	-2041
▁infor	-2042
eel	-2043
rek	-2044
▁photo	-2045
utine	-2046
rect	-2047
▁Ex	-2048
ëren	-2049
▁Sch	-2050
ullen	-2051
vloed	-2052
oop	-2053
stru	-2054
▁why	-2055
▁times	-2056
indow	-2057
▁char	-2058
cel	-2059
ific	-2060
oven	-2061
ern	-2062
▁details	-2063
▁ondersteun	-2064
▁begrij	-2065
▁werd	-2066
▁sen	-2067
▁So	-2068
▁history	-2069
▁ris	-2070
uz	-2071
▁wanneer	-2072
atieve	-2073
ically	-2074
ots	-2075
▁identify	-2076
3.	-2077
▁twee	-2078
raag	-2079
▁auto	-2080
▁called	-2081
rain	-2082
dien	-2083
ior	-2084
otos	-2085
werp	-2086
▁color	-2087
▁sleep	-2088
▁ges	-2089
▁eng	-2090
ability	-2091
▁method	-2092
▁popul	-2093
ton	-2094
▁mill	-2095
ries	-2096
▁unique	-2097
▁music	-2098
When	-2099
▁mentioned	-2100
▁feed	-2101
ium	-2102
▁requi	-2103
oney	-2104
zelf	-2105
▁default	-2106
itor	-2107
▁within	-2108
Check	-2109
▁build	-2110
▁create	-2111
▁session	-2112
▁account	-2113
ec	-2114
▁settings	-2115
cking	-2116
▁verminder	-2117
▁ken	-2118
iety	-2119
▁family	-2120
▁here	-2121
pres	-2122
▁speaker	-2123
▁network	-2124
▁onze	-2125
mem	-2126
▁past	-2127
▁New	-2128
top	-2129
secon	-2130
ones	-2131
oci	-2132
▁geven	-2133
aardig	-2134
oom	-2135
ition	-2136
▁200	-2137
▁activity	-2138
▁num	-2139
aby	-2140
▁zorgen	-2141
▁bedrijf	-2142
▁put	-2143
▁econom	-2144
▁Can	-2145
na	-2146
▁speed	-2147
ticip	-2148
▁consider	-2149
▁miss	-2150
Vol	-2151
▁cost	-2152
▁binnen	-2153
▁today	-2154
vironment	-2155
▁Ver	-2156
▁To	-2157
▁ons	-2158
mark	-2159
▁meas	-2160
▁effect	-2161
uro	-2162
ives	-2163
aper	-2164
▁custom	-2165
aats	-2166
reven	-2167
▁comb	-2168
▁elk	-2169
▁move	-2170
To	-2171
▁descri	-2172
▁God	-2173
ata	-2174
fo	-2175
▁aand	-2176
▁wants	-2177
atten	-2178
dag	-2179
▁range	-2180
▁seconds	-2181
▁head	-2182
▁struct	-2183
key	-2184
orn	-2185
rin	-2186
houd	-2187
ious	-2188
▁rece	-2189
▁function	-2190
ought	-2191
'."}},"	-2192
▁sci	-2193
reg	-2194
bu	-2195
▁ju	-2196
▁share	-2197
ror	-2198
▁treat	-2199
▁zal	-2200
grees	-2201
▁notes	-2202
Send	-2203
from	-2204
▁following	-2205
ield	-2206
▁plant	-2207
":"202	-2208
He	-2209
iste	-2210
4.	-2211
veel	-2212
▁impact	-2213
card	-2214
User	-2215
▁second	-2216
"}}	-2217
▁emo	-2218
▁state	-2219
▁discuss	-2220
▁rate	-2221
osten	-2222
▁Ad	-2223
aire	-2224
ential	-2225
self	-2226
▁words	-2227
▁dag	-2228
']	-2229
'."},"	-2230
ivery	-2231
oh	-2232
▁(1	-2233
▁sw	-2234
inner	-2235
▁always	-2236
▁smart	-2237
ïnvloed	-2238
bsite	-2239
▁aange	-2240
home	-2241
▁reading	-2242
▁access	-2243
Tra	-2244
rijgen	-2245
▁invest	-2246
▁daily	-2247
rodu	-2248
▁oper	-2249
iversity	-2250
▁beïnvloed	-2251
▁duur	-2252
▁TV	-2253
▁fast	-2254
gra	-2255
event	-2256
seconds	-2257
inn	-2258
▁begrijpen	-2259
▁come	-2260
▁hard	-2261
▁gegeven	-2262
▁album	-2263
▁provide	-2264
oorz	-2265
tain	-2266
ape	-2267
▁zonder	-2268
0,	-2269
▁YYY	-2270
▁recipient	-2271
▁YYYY	-2272
▁eerste	-2273
inst	-2274
▁impro	-2275
US	-2276
▁zou	-2277
avor	-2278
met	-2279
wel	-2280
▁contain	-2281
aurant	-2282
fic	-2283
Who	-2284
tieve	-2285
▁reason	-2286
▁gr	-2287
tens	-2288
▁able	-2289
atic	-2290
▁inc	-2291
▁max	-2292
een	-2293
▁spel	-2294
▁few	-2295
▁means	-2296
ype	-2297
Unique	-2298
agn	-2299
▁benef	-2300
▁near	-2301
▁pain	-2302
▁tradition	-2303
zame	-2304
▁['	-2305
geving	-2306
iver	-2307
unch	-2308
▁est	-2309
mand	-2310
aut	-2311
plan	-2312
▁clean	-2313
▁inte	-2314
▁dec	-2315
▁game	-2316
').","	-2317
imal	-2318
pos	-2319
▁US	-2320
oef	-2321
reminder	-2322
istor	-2323
urity	-2324
photo	-2325
)."}},"	-2326
▁belangrijkste	-2327
voel	-2328
ercise	-2329
▁effic	-2330
▁tre	-2331
▁table	-2332
coming	-2333
▁cell	-2334
▁rele	-2335
oog	-2336
▁sever	-2337
gger	-2338
▁nog	-2339
doel	-2340
":[]}}]	-2341
▁stelt	-2342
clus	-2343
▁cru	-2344
▁vir	-2345
▁phys	-2346
sel	-2347
eder	-2348
▁NI	-2349
gest	-2350
▁course	-2351
ding	-2352
▁situ	-2353
▁Cl	-2354
▁bal	-2355
▁camera	-2356
iezen	-2357
most	-2358
ormal	-2359
▁platform	-2360
▁give	-2361
▁rol	-2362
▁What	-2363
ift	-2364
▁complex	-2365
▁category	-2366
▁ext	-2367
ished	-2368
▁sure	-2369
water	-2370
▁vert	-2371
anti	-2372
▁86	-2373
▁comput	-2374
zone	-2375
▁works	-2376
uiten	-2377
▁elke	-2378
ources	-2379
igin	-2380
iteiten	-2381
▁job	-2382
▁sal	-2383
▁&	-2384
ID	-2385
▁belangrijke	-2386
▁oor	-2387
isch	-2388
▁gre	-2389
thers	-2390
vious	-2391
▁ask	-2392
':	-2393
▁helpt	-2394
▁ten	-2395
rouwen	-2396
high	-2397
Target	-2398
▁mod	-2399
acy	-2400
▁nemen	-2401
EN	-2402
pay	-2403
oorden	-2404
▁until	-2405
▁white	-2406
▁verg	-2407
vant	-2408
▁Je	-2409
anden	-2410
▁making	-2411
▁degrees	-2412
▁currently	-2413
▁grote	-2414
vern	-2415
▁page	-2416
▁non	-2417
▁leid	-2418
ables	-2419
▁partic	-2420
elijkheid	-2421
▁soor	-2422
aling	-2423
Play	-2424
▁notifications	-2425
▁2025-0	-2426
ieren	-2427
aakt	-2428
ended	-2429
irmation	-2430
nis	-2431
ured	-2432
▁eigen	-2433
att	-2434
You	-2435
▁tr	-2436
▁ans	-2437
▁since	-2438
new	-2439
▁song	-2440
▁nu	-2441
fort	-2442
▁energy	-2443
▁lik	-2444
▁groe	-2445
11	-2446
istance	-2447
call	-2448
▁Wor	-2449
▁sele	-2450
oot	-2451
▁sing	-2452
▁toeg	-2453
▁taken	-2454
cing	-2455
▁hoofddoel	-2456
unt	-2457
hing	-2458
ests	-2459
pense	-2460
hip	-2461
eto	-2462
▁informatie	-2463
▁volume	-2464
uid	-2465
ooks	-2466
annel	-2467
▁8601	-2468
▁possible	-2469
▁night	-2470
ER	-2471
▁veilig	-2472
▁perform	-2473
▁Com	-2474
)","	-2475
▁alge	-2476
playlist	-2477
▁'202	-2478
col	-2479
▁geme	-2480
▁mijn	-2481
car	-2482
▁unit	-2483
ired	-2484
▁individu	-2485
▁quality	-2486
▁onderzoek	-2487
▁experience	-2488
▁famil	-2489
Cont	-2490
eken	-2491
max	-2492
Cre	-2493
ority	-2494
▁friend	-2495
▁NIET	-2496
▁fac	-2497
ieën	-2498
vely	-2499
dere	-2500
schedule	-2501
rib	-2502
ged	-2503
ients	-2504
▁step	-2505
▁country	-2506
▁laten	-2507
▁behand	-2508
▁money	-2509
▁company	-2510
ury	-2511
▁says	-2512
▁full	-2513
▁beste	-2514
▁Pl	-2515
verage	-2516
use	-2517
▁object	-2518
▁consum	-2519
▁moder	-2520
▁acc	-2521
▁meestal	-2522
aden	-2523
▁2027	-2524
▁low	-2525
uis	-2526
▁ontwikk	-2527
Ex	-2528
▁record	-2529
▁rij	-2530
▁term	-2531
▁environment	-2532
ipp	-2533
▁huid	-2534
orrow	-2535
▁writing	-2536
ente	-2537
ogen	-2538
side	-2539
▁become	-2540
clude	-2541
▁moment	-2542
▁actually	-2543
turn	-2544
▁inde	-2545
5.	-2546
▁eenv	-2547
▁little	-2548
▁playlist	-2549
▁Res	-2550
▁question	-2551
airs	-2552
▁deel	-2553
▁gev	-2554
Fet	-2555
gar	-2556
▁bi	-2557
▁Door	-2558
▁16	-2559
▁doen	-2560
▁stress	-2561
-12	-2562
Email	-2563
▁someone	-2564
ijnen	-2565
99	-2566
▁kinderen	-2567
▁14	-2568
▁ger	-2569
enen	-2570
▁known	-2571
▁cause	-2572
gress	-2573
▁waarde	-2574
▁sec	-2575
ister	-2576
rijven	-2577
▁occ	-2578
▁ster	-2579
▁doesn	-2580
ched	-2581
Cal	-2582
▁Con	-2583
sens	-2584
agen	-2585
note	-2586
▁slot	-2587
▁total	-2588
▁big	-2589
cisions	-2590
board	-2591
bes	-2592
--	-2593
▁needed	-2594
▁nut	-2595
▁elect	-2596
now	-2597
▁hoog	-2598
bouw	-2599
void	-2600
▁live	-2601
▁ontwikkel	-2602
medium	-2603
IN	-2604
▁success	-2605
ych	-2606
celsius	-2607
▁material	-2608
udget	-2609
eth	-2610
▁women	-2611
▁imm	-2612
ait	-2613
onen	-2614
▁later	-2615
ples	-2616
▁voorkomen	-2617
▁others	-2618
▁Te	-2619
item	-2620
▁sle	-2621
outh	-2622
rist	-2623
low	-2624
▁verwij	-2625
▁caus	-2626
screen	-2627
miss	-2628
mar	-2629
▁Ph	-2630
ends	-2631
Text	-2632
▁percentage	-2633
Type	-2634
▁press	-2635
person	-2636
▁schedule	-2637
▁case	-2638
For	-2639
entieel	-2640
▁watch	-2641
▁When	-2642
tific	-2643
wijs	-2644
antwoord	-2645
▁public	-2646
▁gevoel	-2647
ijk	-2648
aste	-2649
control	-2650
▁prima	-2651
▁zullen	-2652
▁audio	-2653
▁cir	-2654
oday	-2655
78	-2656
▁dise	-2657
face	-2658
kele	-2659
Can	-2660
▁story	-2661
▁Q	-2662
▁ISO	-2663
▁2026-0	-2664
▁natuur	-2665
▁problem	-2666
tes	-2667
ump	-2668
loss	-2669
▁Mon	-2670
conf	-2671
post	-2672
▁naam	-2673
14	-2674
ogn	-2675
lex	-2676
▁addition	-2677
▁zone	-2678
▁thing	-2679
▁waarb	-2680
stead	-2681
▁groot	-2682
Com	-2683
▁mach	-2684
▁begin	-2685
▁artic	-2686
acc	-2687
▁leiden	-2688
ana	-2689
▁changes	-2690
▁exact	-2691
Create	-2692
▁effectie	-2693
▁hour	-2694
Time	-2695
▁plaats	-2696
▁never	-2697
ket	-2698
ably	-2699
alf	-2700
▁sav	-2701
▁artist	-2702
nem	-2703
▁leren	-2704
▁govern	-2705
▁zien	-2706
▁mind	-2707
posi	-2708
▁symbol	-2709
▁assistant	-2710
lingen	-2711
ointment	-2712
oes	-2713
oods	-2714
ads	-2715
▁syn	-2716
▁voordelen	-2717
so	-2718
▁display	-2719
▁website	-2720
ship	-2721
pak	-2722
ichten	-2723
ges	-2724
▁Defaults	-2725
▁against	-2726
▁done	-2727
Enable	-2728
eden	-2729
▁personal	-2730
ftware	-2731
0.	-2732
opp	-2733
len	-2734
▁organis	-2735
▁optionally	-2736
baarheid	-2737
▁happen	-2738
Add	-2739
▁(2	-2740
▁proper	-2741
limit	-2742
▁kans	-2743
▁according	-2744
sn	-2745
▁Se	-2746
".	-2747
urb	-2748
rink	-2749
yle	-2750
▁verw	-2751
gr	-2752
cycl	-2753
alarm	-2754
▁model	-2755
18	-2756
▁financi	-2757
▁fore	-2758
▁calendar	-2759
▁working	-2760
▁break	-2761
idence	-2762
▁essay	-2763
size	-2764
hy	-2765
medic	-2766
ox	-2767
▁omv	-2768
▁communic	-2769
fect	-2770
iale	-2771
▁prom	-2772
▁repl	-2773
▁price	-2774
▁special	-2775
Retrieves	-2776
▁got	-2777
ract	-2778
avigation	-2779
product	-2780
▁law	-2781
▁vere	-2782
cript	-2783
▁hot	-2784
▁label	-2785
Pro	-2786
":{}}]	-2787
▁werken	-2788
▁gebruikers	-2789
ming	-2790
▁maj	-2791
▁med	-2792
hot	-2793
▁primaire	-2794
▁dog	-2795
down	-2796
▁required	-2797
tire	-2798
rokken	-2799
my	-2800
actions	-2801
▁having	-2802
Ac	-2803
owel	-2804
▁clear	-2805
▁juiste	-2806
▁bill	-2807
▁provided	-2808
ung	-2809
rug	-2810
▁ther	-2811
essages	-2812
▁frequ	-2813
agement	-2814
▁houden	-2815
werking	-2816
▁risk	-2817
point	-2818
▁rema	-2819
Waarom	-2820
lang	-2821
▁away	-2822
Des	-2823
▁11	-2824
aven	-2825
oeg	-2826
▁offer	-2827
currency	-2828
▁affe	-2829
▁skills	-2830
reply	-2831
workout	-2832
▁topic	-2833
▁appe	-2834
▁recording	-2835
▁Is	-2836
speed	-2837
▁please	-2838
▁certain	-2839
▁mob	-2840
kelijk	-2841
rase	-2842
▁All	-2843
▁recomm	-2844
55	-2845
▁dete	-2846
ifi	-2847
atuur	-2848
▁verminderen	-2849
",	-2850
▁API	-2851
eding	-2852
▁arg	-2853
▁gezondheids	-2854
ES	-2855
ng	-2856
▁enough	-2857
▁Ac	-2858
▁sympt	-2859
▁community	-2860
▁That	-2861
ird	-2862
▁retrie	-2863
▁routine	-2864
▁makes	-2865
▁poli	-2866
▁employ	-2867
-10	-2868
ying	-2869
▁Par	-2870
▁These	-2871
dates	-2872
▁meeting	-2873
▁usage	-2874
▁However	-2875
▁development	-2876
"}]	-2877
rip	-2878
days	-2879
▁optim	-2880
▁neg	-2881
▁invol	-2882
As	-2883
▁bepaal	-2884
▁analys	-2885
aces	-2886
ditions	-2887
▁avoid	-2888
Om	-2889
zet	-2890
▁succes	-2891
▁lichaam	-2892
▁defin	-2893
uff	-2894
▁local	-2895
▁rec	-2896
cties	-2897
▁maakt	-2898
ither	-2899
kennen	-2900
▁summary	-2901
Ph	-2902
▁vast	-2903
▁24	-2904
▁vinden	-2905
ety	-2906
ocial	-2907
▁save	-2908
▁active	-2909
▁blood	-2910
▁specifieke	-2911
▁thought	-2912
▁large	-2913
▁Fri	-2914
struct	-2915
▁compon	-2916
iets	-2917
▁types	-2918
▁heart	-2919
▁size	-2920
role	-2921
aardigheden	-2922
▁CO	-2923
19	-2924
hol	-2925
hic	-2926
▁(0	-2927
dri	-2928
▁gemeensch	-2929
▁ey	-2930
ferences	-2931
cords	-2932
heit	-2933
▁bedrijven	-2934
▁bad	-2935
run	-2936
▁age	-2937
ists	-2938
▁position	-2939
ograph	-2940
▁beteken	-2941
ane	-2942
sing	-2943
▁dien	-2944
▁source	-2945
nov	-2946
▁view	-2947
parture	-2948
▁Col	-2949
oden	-2950
▁mar	-2951
▁50	-2952
ening	-2953
▁initi	-2954
tom	-2955
22	-2956
▁payment	-2957
ener	-2958
▁happ	-2959
renheit	-2960
front	-2961
▁impl	-2962
▁Mar	-2963
▁histor	-2964
▁bit	-2965
ommige	-2966
target	-2967
plement	-2968
uture	-2969
member	-2970
service	-2971
▁intern	-2972
▁named	-2973
▁17	-2974
ived	-2975
ork	-2976
▁nieuw	-2977
settings	-2978
▁hebt	-2979
volle	-2980
ulp	-2981
ler	-2982
▁enkele	-2983
sych	-2984
▁remo	-2985
▁culture	-2986
Ar	-2987
▁tools	-2988
▁description	-2989
▁context	-2990
include	-2991
une	-2992
onse	-2993
▁anti	-2994
▁site	-2995
ctice	-2996
▁image	-2997
iled	-2998
usic	-2999
▁risico	-3000
▁doing	-3001
,000	-3002
roll	-3003
▁review	-3004
info	-3005
kende	-3006
▁regel	-3007
▁origin	-3008
ura	-3009
▁wal	-3010
ibr	-3011
▁mor	-3012
▁American	-3013
▁mer	-3014
▁prob	-3015
ances	-3016
▁zw	-3017
sleep	-3018
▁application	-3019
mit	-3020
▁appar	-3021
aanse	-3022
tention	-3023
▁answer	-3024
AT	-3025
▁charg	-3026
▁station	-3027
▁side	-3028
▁quick	-3029
▁old	-3030
▁tell	-3031
ently	-3032
itation	-3033
16	-3034
ekent	-3035
nie	-3036
There	-3037
goal	-3038
▁veroorz	-3039
▁Sat	-3040
▁once	-3041
▁kw	-3042
▁sla	-3043
▁.	-3044
waliteit	-3045
▁sport	-3046
[]	-3047
▁creëren	-3048
aly	-3049
▁gene	-3050
▁kiezen	-3051
ilt	-3052
▁achter	-3053
lose	-3054
▁prest	-3055
▁bot	-3056
block	-3057
▁insp	-3058
▁verster	-3059
etooth	-3060
▁usually	-3061
ede	-3062
▁diffic	-3063
▁particip	-3064
▁Met	-3065
notes	-3066
▁left	-3067
▁priv	-3068
anger	-3069
▁likely	-3070
summary	-3071
▁party	-3072
▁huis	-3073
otal	-3074
Me	-3075
▁University	-3076
ready	-3077
▁space	-3078
▁signific	-3079
▁vl	-3080
fast	-3081
▁four	-3082
▁13	-3083
▁least	-3084
▁betekent	-3085
▁stra	-3086
urgent	-3087
▁beper	-3088
mary	-3089
eringen	-3090
bon	-3091
redit	-3092
▁sound	-3093
-15	-3094
Turn	-3095
osed	-3096
datetime	-3097
▁krijgen	-3098
▁enc	-3099
times	-3100
▁far	-3101
▁relation	-3102
-19	-3103
Query	-3104
▁whole	-3105
▁existing	-3106
zijn	-3107
bruik	-3108
ires	-3109
gether	-3110
aart	-3111
▁together	-3112
week	-3113
flight	-3114
▁{	-3115
eks	-3116
unity	-3117
▁city	-3118
▁At	-3119
▁creat	-3120
▁weather	-3121
volume	-3122
AR	-3123
ante	-3124
rong	-3125
▁student	-3126
steps	-3127
▁toep	-3128
▁ber	-3129
OT	-3130
gev	-3131
▁redu	-3132
▁blijven	-3133
▁getting	-3134
▁track	-3135
▁brand	-3136
▁daar	-3137
wards	-3138
load	-3139
uration	-3140
ney	-3141
udies	-3142
ersch	-3143
▁analy	-3144
meth	-3145
▁laat	-3146
▁rem	-3147
▁single	-3148
▁services	-3149
uze	-3150
▁hen	-3151
▁apply	-3152
▁stream	-3153
iseren	-3154
▁forward	-3155
▁Ik	-3156
▁duid	-3157
▁sensor	-3158
ored	-3159
▁micro	-3160
elde	-3161
video	-3162
vie	-3163
find	-3164
ilar	-3165
hand	-3166
▁mag	-3167
mp	-3168
▁stre	-3169
▁training	-3170
25	-3171
▁She	-3172
▁moe	-3173
▁steps	-3174
▁particular	-3175
glish	-3176
▁+	-3177
▁house	-3178
▁voice	-3179
abor	-3180
▁deb	-3181
▁exercise	-3182
▁Cent	-3183
camera	-3184
▁idea	-3185
li	-3186
▁etc	-3187
▁hum	-3188
▁var	-3189
acu	-3190
▁chem	-3191
▁sociale	-3192
▁warm	-3193
▁levels	-3194
▁measure	-3195
▁require	-3196
▁web	-3197
▁indust	-3198
▁delete	-3199
ey	-3200
ledge	-3201
▁trip	-3202
▁persoonlijke	-3203
▁kil	-3204
▁tru	-3205
▁self	-3206
▁love	-3207
ervation	-3208
cially	-3209
▁ways	-3210
▁ol	-3211
▁print	-3212
▁lucht	-3213
▁taking	-3214
Res	-3215
ffee	-3216
▁zowel	-3217
data	-3218
ounds	-3219
▁zelfs	-3220
▁onwaar	-3221
▁weight	-3222
▁energie	-3223
▁early	-3224
inding	-3225
ië	-3226
ager	-3227
zorg	-3228
▁beschik	-3229
▁Bl	-3230
▁respons	-3231
bal	-3232
▁toepass	-3233
▁X	-3234
▁future	-3235
▁questions	-3236
▁liter	-3237
▁fr	-3238
▁betekenis	-3239
▁cover	-3240
medication	-3241
▁terug	-3242
▁sun	-3243
history	-3244
▁already	-3245
hank	-3246
bot	-3247
▁cruci	-3248
ams	-3249
▁cooking	-3250
▁problemen	-3251
▁leerlingen	-3252
zing	-3253
itchen	-3254
ustr	-3255
▁gegevens	-3256
Open	-3257
▁kom	-3258
Max	-3259
▁technologie	-3260
▁po	-3261
▁tags	-3262
▁character	-3263
▁Hoe	-3264
▁problems	-3265
change	-3266
year	-3267
today	-3268
▁increase	-3269
▁education	-3270
▁travel	-3271
▁tal	-3272
▁along	-3273
▁across	-3274
older	-3275
igure	-3276
-3	-3277
head	-3278
▁ill	-3279
Fetches	-3280
▁mis	-3281
▁tax	-3282
▁paper	-3283
cover	-3284
cycling	-3285
▁instead	-3286
▁sent	-3287
sol	-3288
po	-3289
iddel	-3290
aand	-3291
conne	-3292
ummer	-3293
▁estim	-3294
uel	-3295
alert	-3296
▁names	-3297
▁associ	-3298
▁Me	-3299
urns	-3300
can	-3301
cipe	-3302
elden	-3303
chte	-3304
▁lij	-3305
▁aantal	-3306
aars	-3307
▁baby	-3308
▁repres	-3309
gang	-3310
▁bron	-3311
ko	-3312
▁computer	-3313
▁won	-3314
▁members	-3315
Fi	-3316
▁pairs	-3317
▁emotion	-3318
▁richt	-3319
rijft	-3320
▁super	-3321
▁camp	-3322
▁oil	-3323
ament	-3324
▁document	-3325
▁IDs	-3326
pected	-3327
ino	-3328
reshold	-3329
leg	-3330
▁overwe	-3331
Travel	-3332
80	-3333
▁correct	-3334
imer	-3335
onger	-3336
update	-3337
▁behoef	-3338
comp	-3339
▁zod	-3340
▁individual	-3341
oudig	-3342
ride	-3343
▁tele	-3344
▁tick	-3345
▁improve	-3346
▁genre	-3347
▁tro	-3348
▁Some	-3349
ovendien	-3350
▁introdu	-3351
▁School	-3352
ides	-3353
▁Or	-3354
▁behav	-3355
▁blo	-3356
oogle	-3357
▁toen	-3358
Ja	-3359
oose	-3360
60	-3361
▁radi	-3362
MS	-3363
za	-3364
chan	-3365
▁25	-3366
mene	-3367
▁vooral	-3368
Le	-3369
zy	-3370
▁expression	-3371
▁government	-3372
▁market	-3373
percent	-3374
ica	-3375
▁besl	-3376
:15	-3377
ught	-3378
▁length	-3379
ders	-3380
partment	-3381
▁ann	-3382
▁smo	-3383
▁vrij	-3384
last	-3385
antity	-3386
▁betrokken	-3387
mm	-3388
oordelen	-3389
astic	-3390
tten	-3391
comes	-3392
druk	-3393
▁dam	-3394
Ge	-3395
▁software	-3396
uf	-3397
▁lay	-3398
▁'2025-0	-3399
▁currency	-3400
fah	-3401
▁ingred	-3402
heer	-3403
▁thin	-3404
▁essentieel	-3405
tv	-3406
meal	-3407
▁concept	-3408
igher	-3409
aj	-3410
▁Do	-3411
ials	-3412
▁emer	-3413
Yes	-3414
"}}},{"	-3415
urther	-3416
kingen	-3417
uig	-3418
▁kids	-3419
▁subscription	-3420
orderen	-3421
keywords	-3422
▁har	-3423
zelfde	-3424
calculate	-3425
▁drie	-3426
▁dro	-3427
▁toek	-3428
udes	-3429
▁implement	-3430
▁vragen	-3431
-02	-3432
▁close	-3433
▁bekend	-3434
▁kosten	-3435
▁innov	-3436
▁El	-3437
1,	-3438
anks	-3439
AC	-3440
▁hier	-3441
▁practice	-3442
tice	-3443
▁several	-3444
▁mogelijke	-3445
▁mass	-3446
▁phrase	-3447
":1	-3448
▁emp	-3449
▁issues	-3450
stof	-3451
itude	-3452
pr	-3453
▁dom	-3454
spra	-3455
▁cry	-3456
▁returns	-3457
selves	-3458
transit	-3459
▁kracht	-3460
ites	-3461
▁ontwikkelen	-3462
heids	-3463
▁conditions	-3464
Del	-3465
acuum	-3466
▁above	-3467
"}}},"	-3468
vangen	-3469
▁bouw	-3470
dra	-3471
▁que	-3472
▁favor	-3473
▁arch	-3474
▁bevorderen	-3475
:3	-3476
▁aanzien	-3477
▁ens	-3478
▁disease	-3479
▁whether	-3480
▁stor	-3481
hicle	-3482
▁half	-3483
calendar	-3484
▁physical	-3485
avy	-3486
▁efficiën	-3487
▁didn	-3488
▁purpose	-3489
fahrenheit	-3490
-11	-3491
stit	-3492
uten	-3493
▁gele	-3494
▁waarom	-3495
▁setting	-3496
veer	-3497
abil	-3498
▁prin	-3499
UR	-3500
▁Sun	-3501
▁workout	-3502
vl	-3503
▁elekt	-3504
▁issue	-3505
werken	-3506
▁verder	-3507
delete	-3508
▁window	-3509
▁Car	-3510
ml	-3511
osp	-3512
▁bew	-3513
▁steeds	-3514
proble	-3515
woon	-3516
zaam	-3517
▁adv	-3518
▁waren	-3519
▁areas	-3520
7.	-3521
▁functie	-3522
▁financiële	-3523
ichte	-3524
▁flight	-3525
rict	-3526
▁link	-3527
▁young	-3528
ouwd	-3529
▁hold	-3530
▁waarsch	-3531
▁multiple	-3532
▁\"	-3533
valu	-3534
bet	-3535
Als	-3536
oten	-3537
▁psych	-3538
ctiv	-3539
▁indic	-3540
40	-3541
▁cur	-3542
▁vraag	-3543
▁values	-3544
▁opport	-3545
▁vro	-3546
Sub	-3547
▁either	-3548
hel	-3549
▁ach	-3550
▁kra	-3551
▁natural	-3552
▁2025	-3553
23	-3554
▁Med	-3555
▁bent	-3556
kun	-3557
▁bewe	-3558
▁prak	-3559
pecially	-3560
▁numbers	-3561
fun	-3562
aves	-3563
▁por	-3564
program	-3565
▁geïn	-3566
▁cop	-3567
payment	-3568
month	-3569
sv	-3570
▁comes	-3571
Maximum	-3572
adem	-3573
▁Man	-3574
▁waarin	-3575
▁budget	-3576
▁buiten	-3577
▁response	-3578
▁unieke	-3579
▁ment	-3580
▁los	-3581
Pre	-3582
▁adjust	-3583
:00:00	-3584
▁role	-3585
▁weer	-3586
▁retrieve	-3587
ikt	-3588
mogen	-3589
▁Bij	-3590
▁gaan	-3591
▁skin	-3592
▁tw	-3593
▁entire	-3594
▁temper	-3595
organ	-3596
▁dev	-3597
AN	-3598
▁though	-3599
AS	-3600
▁pressure	-3601
icy	-3602
kl	-3603
ada	-3604
ohn	-3605
▁uitdag	-3606
▁mat	-3607
▁kenmer	-3608
rel	-3609
wing	-3610
zoeken	-3611
▁larg	-3612
▁activities	-3613
cks	-3614
lect	-3615
ibility	-3616
▁iets	-3617
watch	-3618
▁Of	-3619
atief	-3620
ca	-3621
itive	-3622
▁zodat	-3623
▁article	-3624
orth	-3625
▁significant	-3626
Tri	-3627
▁necess	-3628
▁glob	-3629
▁various	-3630
dim	-3631
past	-3632
vides	-3633
atures	-3634
▁2027-0	-3635
▁cut	-3636
upp	-3637
gele	-3638
▁United	-3639
▁higher	-3640
▁toegang	-3641
bro	-3642
▁playing	-3643
ators	-3644
iting	-3645
▁Wed	-3646
ieken	-3647
ements	-3648
▁block	-3649
▁English	-3650
**	-3651
ya	-3652
▁brightness	-3653
▁…	-3654
keuri	-3655
veren	-3656
ferred	-3657
▁vormen	-3658
▁arri	-3659
aging	-3660
assen	-3661
Room	-3662
▁path	-3663
gu	-3664
▁der	-3665
▁werden	-3666
▁looking	-3667
▁ko	-3668
imte	-3669
▁hol	-3670
akken	-3671
ctic	-3672
▁events	-3673
▁comfort	-3674
ijf	-3675
acks	-3676
record	-3677
They	-3678
▁Your	-3679
▁brain	-3680
like	-3681
▁fund	-3682
aff	-3683
bel	-3684
▁kunst	-3685
▁trying	-3686
▁hor	-3687
▁ren	-3688
▁bring	-3689
▁approach	-3690
▁algemene	-3691
▁/	-3692
iedenis	-3693
Welk	-3694
▁bir	-3695
atit	-3696
▁relig	-3697
▁fall	-3698
▁safe	-3699
▁infe	-3700
aard	-3701
actie	-3702
izen	-3703
▁easy	-3704
mod	-3705
erende	-3706
aim	-3707
▁hoge	-3708
▁div	-3709
▁months	-3710
▁prevent	-3711
warm	-3712
▁pack	-3713
▁treatment	-3714
▁region	-3715
Why	-3716
▁buy	-3717
▁anim	-3718
▁bereiken	-3719
":2	-3720
ological	-3721
Min	-3722
▁const	-3723
gebre	-3724
▁meeste	-3725
▁waaronder	-3726
▁aanpak	-3727
▁update	-3728
▁Ne	-3729
dom	-3730
▁products	-3731
itam	-3732
▁especially	-3733
igheid	-3734
activity	-3735
▁voordat	-3736
▁reply	-3737
▁doll	-3738
asing	-3739
▁cycle	-3740
▁similar	-3741
▁art	-3742
▁breed	-3743
▁zeer	-3744
▁popular	-3745
▁Amerik	-3746
2,	-3747
url	-3748
cribe	-3749
▁primary	-3750
abl	-3751
Ver	-3752
▁invloed	-3753
▁Bovendien	-3754
":3	-3755
ample	-3756
▁among	-3757
▁film	-3758
▁simple	-3759
struction	-3760
amb	-3761
language	-3762
▁shows	-3763
▁eig	-3764
▁compe	-3765
witch	-3766
▁artikel	-3767
▁coll	-3768
▁explain	-3769
ole	-3770
▁lower	-3771
cell	-3772
90	-3773
otor	-3774
ailed	-3775
▁marketing	-3776
▁minder	-3777
▁below	-3778
▁continu	-3779
aster	-3780
▁hele	-3781
▁gevol	-3782
Am	-3783
proces	-3784
atitude	-3785
▁behouden	-3786
▁stock	-3787
▁eenvoudig	-3788
▁Pri	-3789
▁five	-3790
▁provides	-3791
▁tracking	-3792
▁inclus	-3793
▁altern	-3794
▁immedi	-3795
▁major	-3796
▁technology	-3797
▁perfect	-3798
▁yourself	-3799
App	-3800
So	-3801
▁ontde	-3802
ologische	-3803
senti	-3804
▁species	-3805
▁beschrijft	-3806
active	-3807
▁carri	-3808
iveau	-3809
▁points	-3810
ledig	-3811
▁parents	-3812
▁offic	-3813
▁anything	-3814
▁tom	-3815
▁stat	-3816
cooking	-3817
dire	-3818
▁pet	-3819
ridge	-3820
▁geld	-3821
▁death	-3822
voorbeeld	-3823
rig	-3824
Returns	-3825
ley	-3826
▁living	-3827
▁speak	-3828
▁ang	-3829
ilters	-3830
oman	-3831
urch	-3832
ands	-3833
hour	-3834
▁string	-3835
igde	-3836
▁ervaring	-3837
vestig	-3838
▁jaren	-3839
▁x	-3840
▁condition	-3841
▁Wi	-3842
show	-3843
▁field	-3844
▁cannot	-3845
____	-3846
▁task	-3847
apan	-3848
▁verd	-3849
▁port	-3850
▁voldo	-3851
▁benad	-3852
▁delen	-3853
▁concer	-3854
▁isn	-3855
asting	-3856
▁divers	-3857
ided	-3858
place	-3859
▁Comm	-3860
▁ever	-3861
▁leave	-3862
imate	-3863
▁dead	-3864
▁created	-3865
▁knowledge	-3866
itale	-3867
wit	-3868
uck	-3869
▁leidt	-3870
▁Tra	-3871
RL	-3872
▁garden	-3873
▁factor	-3874
6.	-3875
▁loss	-3876
ibrary	-3877
▁uitgebre	-3878
▁potential	-3879
achten	-3880
son	-3881
▁lap	-3882
8.	-3883
▁difference	-3884
▁meet	-3885
▁univers	-3886
ups	-3887
▁face	-3888
walking	-3889
IT	-3890
▁probleem	-3891
▁ep	-3892
▁average	-3893
▁gemaakt	-3894
▁stij	-3895
▁studies	-3896
▁altijd	-3897
▁automatic	-3898
▁il	-3899
▁accept	-3900
zicht	-3901
▁machine	-3902
▁photos	-3903
▁consist	-3904
epen	-3905
irl	-3906
werpen	-3907
▁Dr	-3908
▁With	-3909
▁coun	-3910
▁'1	-3911
irit	-3912
Ik	-3913
vorm	-3914
▁represent	-3915
venue	-3916
▁progress	-3917
▁resources	-3918
▁markt	-3919
▁convers	-3920
distance	-3921
▁gaat	-3922
urgency	-3923
rik	-3924
▁believe	-3925
"]}}},{"	-3926
▁write	-3927
▁strength	-3928
erve	-3929
▁security	-3930
4-0	-3931
igt	-3932
urope	-3933
▁base	-3934
though	-3935
gener	-3936
▁purch	-3937
brightness	-3938
▁zoek	-3939
veilig	-3940
▁messages	-3941
▁engine	-3942
wege	-3943
▁bepaalde	-3944
▁medication	-3945
inds	-3946
cision	-3947
▁population	-3948
▁pan	-3949
houden	-3950
▁pie	-3951
inder	-3952
▁klant	-3953
rijs	-3954
▁attention	-3955
come	-3956
ulation	-3957
child	-3958
▁Om	-3959
▁eind	-3960
▁voed	-3961
▁dus	-3962
▁patter	-3963
▁60	-3964
▁route	-3965
▁confirmation	-3966
▁Cal	-3967
sensor	-3968
tisch	-3969
▁gain	-3970
▁gewoon	-3971
ilit	-3972
break	-3973
edsel	-3974
▁readable	-3975
▁hem	-3976
▁reis	-3977
▁zon	-3978
▁previous	-3979
aag	-3980
Date	-3981
▁starting	-3982
lagen	-3983
▁cat	-3984
88	-3985
dle	-3986
ijnlijk	-3987
Log	-3988
▁proces	-3989
▁general	-3990
ala	-3991
▁compl	-3992
▁aspect	-3993
subscription	-3994
price	-3995
▁diet	-3996
triage	-3997
zer	-3998
▁ca	-3999
▁One	-4000
ratie	-4001
▁saved	-4002
ester	-4003
▁las	-4004
▁strong	-4005
▁fru	-4006
▁lok	-4007
Be	-4008
▁pick	-4009
▁gebeur	-4010
▁asks	-4011
Volume	-4012
▁calls	-4013
▁vi	-4014
source	-4015
▁vaardigheden	-4016
▁moeil	-4017
▁everything	-4018
▁Er	-4019
bor	-4020
ground	-4021
▁started	-4022
que	-4023
▁Not	-4024
▁Cont	-4025
▁uses	-4026
stelling	-4027
ourn	-4028
▁Eng	-4029
▁virt	-4030
▁beschreven	-4031
joy	-4032
▁cho	-4033
▁overw	-4034
▁building	-4035
75	-4036
offen	-4037
▁directly	-4038
▁beïnvloeden	-4039
atory	-4040
creens	-4041
:4	-4042
▁running	-4043
▁volledig	-4044
▁appointment	-4045
▁oef	-4046
iemand	-4047
tify	-4048
▁drug	-4049
▁suggest	-4050
▁geeft	-4051
▁May	-4052
raft	-4053
▁flow	-4054
▁factoren	-4055
eter	-4056
▁bar	-4057
icture	-4058
▁news	-4059
▁delay	-4060
▁extre	-4061
▁recht	-4062
iaal	-4063
server	-4064
agram	-4065
▁cou	-4066
▁gedrag	-4067
auto	-4068
food	-4069
hold	-4070
▁sort	-4071
best	-4072
▁States	-4073
ara	-4074
▁helps	-4075
with	-4076
▁kon	-4077
▁verhogen	-4078
IS	-4079
▁Co	-4080
▁uitvo	-4081
▁omgeving	-4082
▁management	-4083
▁boek	-4084
▁gest	-4085
kelijke	-4086
▁assign	-4087
ellingen	-4088
▁everyone	-4089
▁further	-4090
▁sommige	-4091
quality	-4092
▁science	-4093
decisions	-4094
▁considered	-4095
:5	-4096
Op	-4097
stry	-4098
▁wij	-4099
▁India	-4100
▁werkt	-4101
▁muz	-4102
▁voort	-4103
▁nauw	-4104
mel	-4105
▁hog	-4106
angle	-4107
▁klanten	-4108
yl	-4109
gegeven	-4110
3,	-4111
▁National	-4112
ule	-4113
▁effectief	-4114
▁understanding	-4115
▁safety	-4116
▁takes	-4117
▁vereist	-4118
matige	-4119
▁gas	-4120
▁matter	-4121
▁restaurant	-4122
ech	-4123
▁bank	-4124
▁herst	-4125
▁effects	-4126
rum	-4127
9.	-4128
▁1.	-4129
▁URL	-4130
matig	-4131
AP	-4132
='	-4133
▁normal	-4134
notifications	-4135
pet	-4136
wind	-4137
▁boven	-4138
▁iemand	-4139
▁prestaties	-4140
Timer	-4141
urrency	-4142
vention	-4143
▁Christ	-4144
▁seen	-4145
▁dry	-4146
▁member	-4147
gor	-4148
▁hab	-4149
},{"	-4150
▁soon	-4151
▁regard	-4152
music	-4153
tags	-4154
▁describes	-4155
▁benefits	-4156
▁ongeveer	-4157
▁oploss	-4158
iction	-4159
▁influ	-4160
ube	-4161
▁rather	-4162
▁maintain	-4163
▁entry	-4164
▁benadru	-4165
▁bloed	-4166
ED	-4167
▁beter	-4168
▁component	-4169
▁aang	-4170
next	-4171
▁hoeveel	-4172
▁clos	-4173
▁includes	-4174
▁probably	-4175
pol	-4176
▁Ste	-4177
▁Google	-4178
▁medical	-4179
▁front	-4180
▁themselves	-4181
▁regular	-4182
▁tips	-4183
▁style	-4184
iging	-4185
track	-4186
▁million	-4187
Up	-4188
ato	-4189
▁instr	-4190
▁systems	-4191
▁books	-4192
oof	-4193
ball	-4194
▁vacc	-4195
▁wait	-4196
▁healthy	-4197
▁professional	-4198
ensive	-4199
▁oud	-4200
▁playback	-4201
▁credit	-4202
▁aanbe	-4203
rengen	-4204
▁prior	-4205
▁Ass	-4206
ov	-4207
▁cer	-4208
sm	-4209
▁install	-4210
odcast	-4211
▁countries	-4212
anning	-4213
%;	-4214
▁else	-4215
▁verantwoord	-4216
acties	-4217
standard	-4218
▁trigger	-4219
ux	-4220
euw	-4221
estion	-4222
ta	-4223
▁wind	-4224
▁terms	-4225
▁observ	-4226
ynam	-4227
▁beschikbaar	-4228
▁talk	-4229
aming	-4230
plaat	-4231
social	-4232
woorden	-4233
dro	-4234
▁cases	-4235
▁soorten	-4236
▁21	-4237
▁black	-4238
rite	-4239
oordin	-4240
iner	-4241
zon	-4242
▁compan	-4243
▁goede	-4244
exp	-4245
▁da	-4246
▁chat	-4247
test	-4248
oga	-4249
share	-4250
▁distance	-4251
▁ontwikkeling	-4252
▁analysis	-4253
▁verkennen	-4254
▁complete	-4255
▁stay	-4256
Where	-4257
▁echt	-4258
locale	-4259
▁voordeel	-4260
group	-4261
ification	-4262
cting	-4263
▁repe	-4264
▁difficult	-4265
▁asked	-4266
Volgens	-4267
▁Use	-4268
ustral	-4269
iber	-4270
▁inhoud	-4271
Spe	-4272
▁Spe	-4273
▁pat	-4274
inal	-4275
▁Veren	-4276
▁digitale	-4277
genomen	-4278
iles	-4279
▁World	-4280
▁options	-4281
▁voedsel	-4282
▁pred	-4283
"?	-4284
VID	-4285
▁positive	-4286
uted	-4287
▁systeem	-4288
▁40	-4289
▁beheren	-4290
lease	-4291
▁diagn	-4292
izing	-4293
▁groei	-4294
▁Ear	-4295
▁Fl	-4296
akkelijk	-4297
▁licht	-4298
▁hair	-4299
▁lat	-4300
▁kwaliteit	-4301
▁poll	-4302
▁soort	-4303
OR	-4304
tieke	-4305
▁sense	-4306
amily	-4307
▁enjoy	-4308
▁1,	-4309
:0	-4310
4,	-4311
was	-4312
▁effective	-4313
vul	-4314
ermen	-4315
▁reach	-4316
▁sex	-4317
▁morning	-4318
▁waarschijnlijk	-4319
123	-4320
▁Health	-4321
sentiment	-4322
▁separ	-4323
▁wetensch	-4324
21	-4325
▁host	-4326
▁academ	-4327
Calculate	-4328
▁provider	-4329
▁traditionele	-4330
77	-4331
▁yet	-4332
▁krach	-4333
akte	-4334
alty	-4335
stream	-4336
▁growth	-4337
▁kleine	-4338
▁plants	-4339
▁fet	-4340
▁simply	-4341
▁bevat	-4342
rijf	-4343
')."},"	-4344
▁reduce	-4345
lement	-4346
▁Afric	-4347
vider	-4348
worpen	-4349
▁deal	-4350
▁sche	-4351
entist	-4352
▁beschouwd	-4353
▁nar	-4354
standig	-4355
▁spelen	-4356
PS	-4357
sym	-4358
▁harm	-4359
NA	-4360
▁ability	-4361
enn	-4362
▁actie	-4363
▁actions	-4364
▁soil	-4365
▁expected	-4366
isen	-4367
▁teken	-4368
icit	-4369
Sp	-4370
-100	-4371
abase	-4372
▁prep	-4373
nemen	-4374
▁index	-4375
Cl	-4376
itte	-4377
Label	-4378
▁ensure	-4379
▁symptoms	-4380
▁stap	-4381
▁nutri	-4382
bere	-4383
term	-4384
▁internet	-4385
▁connected	-4386
▁Also	-4387
▁huidige	-4388
based	-4389
deling	-4390
▁evol	-4391
▁rela	-4392
battery	-4393
estamp	-4394
▁monitor	-4395
▁auteur	-4396
▁charging	-4397
▁lokale	-4398
▁My	-4399
problemen	-4400
oin	-4401
arter	-4402
▁breat	-4403
cycle	-4404
ameter	-4405
▁goes	-4406
▁Voor	-4407
New	-4408
Filter	-4409
unten	-4410
▁aanpass	-4411
iment	-4412
▁parameters	-4413
iance	-4414
color	-4415
slag	-4416
▁meal	-4417
ventory	-4418
▁fit	-4419
▁however	-4420
▁behoeften	-4421
oos	-4422
▁Thu	-4423
▁written	-4424
▁Pe	-4425
▁bri	-4426
ppl	-4427
achte	-4428
▁came	-4429
▁mobile	-4430
▁aanv	-4431
▁bepalen	-4432
▁Europe	-4433
▁groter	-4434
Tem	-4435
aande	-4436
isatie	-4437
▁vanwege	-4438
ields	-4439
gebruik	-4440
calories	-4441
13	-4442
▁begrip	-4443
▁mi	-4444
▁longer	-4445
ners	-4446
▁mel	-4447
▁waarbij	-4448
uin	-4449
driving	-4450
Conf	-4451
aged	-4452
apter	-4453
▁leef	-4454
▁electric	-4455
Je	-4456
▁22	-4457
fully	-4458
abet	-4459
▁Japan	-4460
cep	-4461
▁tag	-4462
▁groups	-4463
▁fys	-4464
delivery	-4465
▁relevant	-4466
ptions	-4467
▁ready	-4468
▁Tue	-4469
▁45	-4470
▁sender	-4471
leiding	-4472
▁gebieden	-4473
▁kennis	-4474
▁patiën	-4475
ense	-4476
ementen	-4477
page	-4478
?"	-4479
▁standard	-4480
alleng	-4481
aced	-4482
ised	-4483
▁maat	-4484
▁vier	-4485
▁ideas	-4486
▁les	-4487
▁Over	-4488
OS	-4489
CA	-4490
ationale	-4491
▁aantrek	-4492
normal	-4493
▁gehe	-4494
▁programma	-4495
ences	-4496
komende	-4497
ero	-4498
save	-4499
▁guest	-4500
▁mechan	-4501
▁Sc	-4502
▁weg	-4503
oul	-4504
▁meerdere	-4505
ON	-4506
▁flex	-4507
▁willen	-4508
▁info	-4509
-5	-4510
▁therap	-4511
▁Sci	-4512
Dis	-4513
▁ring	-4514
umb	-4515
▁houd	-4516
period	-4517
techn	-4518
▁welke	-4519
▁slow	-4520
▁verm	-4521
▁claim	-4522
▁related	-4523
wifi	-4524
reden	-4525
▁natuurlijke	-4526
maal	-4527
▁Dis	-4528
programma	-4529
ishing	-4530
▁almost	-4531
zij	-4532
lier	-4533
▁lock	-4534
▁shared	-4535
▁'2025-03	-4536
▁uitdagingen	-4537
issen	-4538
▁parts	-4539
▁Hij	-4540
▁performance	-4541
bra	-4542
▁identific	-4543
creenshot	-4544
this	-4545
▁taal	-4546
▁lives	-4547
GB	-4548
:45	-4549
oid	-4550
▁Gre	-4551
▁voedings	-4552
▁zegt	-4553
.'	-4554
▁ou	-4555
cohol	-4556
":5	-4557
Duration	-4558
care	-4559
▁levens	-4560
▁verschil	-4561
▁Coun	-4562
aringen	-4563
opping	-4564
▁laptop	-4565
▁0.	-4566
▁sil	-4567
▁nauwkeuri	-4568
urt	-4569
▁games	-4570
km	-4571
wallet	-4572
▁komen	-4573
Filters	-4574
▁zei	-4575
▁ones	-4576
photos	-4577
▁keyword	-4578
▁late	-4579
▁onderdeel	-4580
▁ec	-4581
ember	-4582
▁stellen	-4583
dust	-4584
▁bra	-4585
pause	-4586
▁crypt	-4587
Pri	-4588
ops	-4589
▁Austral	-4590
where	-4591
▁geschiedenis	-4592
▁stad	-4593
Rep	-4594
▁forecast	-4595
▁producten	-4596
▁squ	-4597
▁John	-4598
▁individuen	-4599
▁West	-4600
▁oorsp	-4601
Af	-4602
▁statis	-4603
▁Indi	-4604
project	-4605
▁production	-4606
tation	-4607
▁password	-4608
▁Gro	-4609
▁charge	-4610
ipt	-4611
▁dou	-4612
▁heat	-4613
▁tonen	-4614
recording	-4615
▁delivery	-4616
free	-4617
▁recogn	-4618
▁PM	-4619
▁took	-4620
▁categ	-4621
gd	-4622
▁App	-4623
df	-4624
urance	-4625
▁cruciaal	-4626
due	-4627
ario	-4628
utions	-4629
personal	-4630
▁outside	-4631
▁continue	-4632
▁emergency	-4633
esus	-4634
asons	-4635
▁glass	-4636
acity	-4637
ooze	-4638
▁basic	-4639
Over	-4640
oegen	-4641
▁bacter	-4642
plant	-4643
▁thinking	-4644
33	-4645
edia	-4646
ales	-4647
▁contra	-4648
24	-4649
rooms	-4650
▁ontst	-4651
Retrieve	-4652
▁eff	-4653
nemers	-4654
▁store	-4655
▁mix	-4656
▁Inter	-4657
17	-4658
▁Reg	-4659
▁switch	-4660
doc	-4661
oring	-4662
provider	-4663
▁profile	-4664
▁Wat	-4665
night	-4666
oph	-4667
Onwaar	-4668
onde	-4669
▁weten	-4670
▁#	-4671
▁ruimte	-4672
activ	-4673
▁hands	-4674
icken	-4675
▁board	-4676
hankelijk	-4677
▁necessary	-4678
▁challeng	-4679
scene	-4680
▁dark	-4681
▁zorgt	-4682
▁minute	-4683
▁devices	-4684
ggen	-4685
meld	-4686
▁motor	-4687
▁vrouwen	-4688
▁decision	-4689
ama	-4690
▁hulp	-4691
▁lights	-4692
▁remember	-4693
▁proced	-4694
-01	-4695
▁meaning	-4696
mission	-4697
▁...	-4698
▁establ	-4699
▁bescherm	-4700
.)	-4701
▁Op	-4702
waarde	-4703
ify	-4704
Hoeveel	-4705
▁ontworpen	-4706
▁stem	-4707
▁verhaal	-4708
esis	-4709
▁spirit	-4710
Amount	-4711
▁spend	-4712
▁Gra	-4713
▁War	-4714
▁ground	-4715
▁structure	-4716
▁Stud	-4717
▁industry	-4718
restaurant	-4719
▁Rep	-4720
▁bele	-4721
airport	-4722
Voor	-4723
iter	-4724
▁COVID	-4725
▁cr	-4726
▁Per	-4727
▁associated	-4728
ublic	-4729
symbol	-4730
lights	-4731
zichten	-4732
base	-4733
▁series	-4734
▁organization	-4735
▁completed	-4736
delay	-4737
▁idee	-4738
▁milj	-4739
nieuw	-4740
▁anderen	-4741
party	-4742
▁resol	-4743
▁center	-4744
▁ban	-4745
image	-4746
wikkel	-4747
▁ontwerp	-4748
wez	-4749
▁encou	-4750
▁functies	-4751
maat	-4752
▁productie	-4753
8,	-4754
orte	-4755
Phone	-4756
press	-4757
▁Fr	-4758
▁aw	-4759
▁calcul	-4760
▁Pol	-4761
sec	-4762
▁cells	-4763
▁eating	-4764
Er	-4765
▁balance	-4766
▁menselijke	-4767
CH	-4768
etten	-4769
zo	-4770
▁dose	-4771
▁channel	-4772
▁companies	-4773
▁fire	-4774
ongitude	-4775
mach	-4776
Deze	-4777
▁ago	-4778
▁lab	-4779
address	-4780
▁foot	-4781
▁evalu	-4782
kn	-4783
osis	-4784
▁navigation	-4785
▁eth	-4786
orie	-4787
elate	-4788
weather	-4789
amm	-4790
rem	-4791
ules	-4792
Do	-4793
duc	-4794
▁movie	-4795
▁friends	-4796
irror	-4797
istic	-4798
▁audi	-4799
▁uur	-4800
All	-4801
▁bla	-4802
▁gere	-4803
▁komt	-4804
▁estimated	-4805
▁tit	-4806
▁gram	-4807
reed	-4808
▁additional	-4809
xy	-4810
iam	-4811
▁digital	-4812
▁built	-4813
sequ	-4814
▁juri	-4815
▁combin	-4816
▁schoon	-4817
▁aff	-4818
▁resultaten	-4819
asks	-4820
▁produce	-4821
heat	-4822
▁choose	-4823
▁relationship	-4824
▁auth	-4825
▁America	-4826
▁fa	-4827
ully	-4828
▁York	-4829
utral	-4830
▁sterke	-4831
ieten	-4832
▁factors	-4833
▁,	-4834
▁intens	-4835
isme	-4836
▁Ter	-4837
▁deep	-4838
sender	-4839
channel	-4840
▁medische	-4841
da	-4842
yp	-4843
itect	-4844
▁effort	-4845
▁states	-4846
65	-4847
▁dem	-4848
▁contrib	-4849
▁patients	-4850
▁regul	-4851
full	-4852
▁convert	-4853
dem	-4854
▁height	-4855
▁happens	-4856
ension	-4857
▁intell	-4858
isten	-4859
▁Fe	-4860
▁schools	-4861
Rem	-4862
tiek	-4863
rage	-4864
6,	-4865
▁eat	-4866
▁beschermen	-4867
▁wrong	-4868
End	-4869
cap	-4870
▁hart	-4871
▁mede	-4872
gn	-4873
▁br	-4874
▁reden	-4875
▁Amerikaanse	-4876
▁band	-4877
▁betrouw	-4878
entiële	-4879
▁wallet	-4880
▁vermogen	-4881
ians	-4882
▁gek	-4883
▁align	-4884
▁final	-4885
oudige	-4886
My	-4887
▁dieren	-4888
▁express	-4889
▁behavior	-4890
▁keywords	-4891
▁{'	-4892
▁Gu	-4893
▁directions	-4894
▁Bri	-4895
Triage	-4896
▁visit	-4897
▁passen	-4898
▁discussion	-4899
▁bur	-4900
▁verte	-4901
▁activiteiten	-4902
▁animals	-4903
▁aard	-4904
▁paar	-4905
▁ir	-4906
▁NOT	-4907
▁cross	-4908
▁ervaren	-4909
▁By	-4910
▁besliss	-4911
hal	-4912
▁vitam	-4913
▁aandacht	-4914
▁typically	-4915
heet	-4916
▁spread	-4917
afe	-4918
▁praktij	-4919
▁ziek	-4920
▁exactly	-4921
▁inside	-4922
omst	-4923
▁allows	-4924
▁rain	-4925
But	-4926
ores	-4927
table	-4928
Delete	-4929
▁ondersteunen	-4930
gment	-4931
▁vehicle	-4932
▁onderwijs	-4933
▁Cons	-4934
And	-4935
pervl	-4936
ulty	-4937
▁six	-4938
▁mental	-4939
▁Che	-4940
▁nothing	-4941
▁financial	-4942
▁identificeren	-4943
▁records	-4944
▁duidelijk	-4945
▁wilt	-4946
left	-4947
kte	-4948
Sets	-4949
isturb	-4950
▁frequency	-4951
PA	-4952
ony	-4953
▁added	-4954
minist	-4955
▁controle	-4956
▁nature	-4957
needs	-4958
tone	-4959
rench	-4960
▁verv	-4961
ereert	-4962
▁verzame	-4963
▁situation	-4964
▁recommend	-4965
▁Qu	-4966
ille	-4967
▁bijd	-4968
▁grond	-4969
▁expense	-4970
▁ondersteuning	-4971
▁After	-4972
▁asset	-4973
ocol	-4974
▁coordin	-4975
▁designed	-4976
Source	-4977
▁individuals	-4978
bij	-4979
late	-4980
▁bewust	-4981
▁farm	-4982
tomorrow	-4983
▁welzijn	-4984
appelijke	-4985
▁curs	-4986
▁poor	-4987
intent	-4988
chat	-4989
ergy	-4990
han	-4991
▁druk	-4992
illing	-4993
systeem	-4994
▁gives	-4995
▁cancer	-4996
ancy	-4997
▁Har	-4998
456	-4999
▁ied	-5000
▁uitge	-5001
▁respond	-5002
▁evidence	-5003
▁pret	-5004
username	-5005
ereen	-5006
▁stim	-5007
▁damage	-5008
▁original	-5009
▁pour	-5010
▁voet	-5011
ronic	-5012
▁klein	-5013
▁extreme	-5014
routine	-5015
▁respect	-5016
▁teachers	-5017
▁property	-5018
▁requires	-5019
Your	-5020
height	-5021
gaan	-5022
▁Hier	-5023
▁behind	-5024
▁inj	-5025
ified	-5026
▁2.	-5027
▁zoeken	-5028
At	-5029
tian	-5030
close	-5031
▁2020	-5032
bi	-5033
▁box	-5034
▁roll	-5035
Bij	-5036
▁Jesus	-5037
oad	-5038
▁easily	-5039
▁Van	-5040
ournal	-5041
▁Verenigde	-5042
▁communicatie	-5043
nes	-5044
oogde	-5045
resp	-5046
▁omvat	-5047
":""},"	-5048
▁relatie	-5049
70	-5050
ava	-5051
▁onver	-5052
beheer	-5053
▁gebied	-5054
▁Mo	-5055
aries	-5056
elingen	-5057
▁dingen	-5058
vest	-5059
▁SMS	-5060
▁perspe	-5061
▁fat	-5062
▁valid	-5063
▁studenten	-5064
▁betre	-5065
Key	-5066
inde	-5067
▁expect	-5068
▁score	-5069
▁config	-5070
los	-5071
▁doelen	-5072
▁wonder	-5073
▁modern	-5074
▁Rap	-5075
▁merk	-5076
motion	-5077
▁muziek	-5078
▁materials	-5079
▁Am	-5080
▁Min	-5081
▁milie	-5082
quantity	-5083
▁throughout	-5084
kitchen	-5085
▁quickly	-5086
▁kru	-5087
ctiviteit	-5088
heers	-5089
▁tomorrow	-5090
▁birth	-5091
tag	-5092
▁rooms	-5093
spraak	-5094
take	-5095
EO	-5096
▁sometimes	-5097
ervaring	-5098
yard	-5099
▁demon	-5100
▁practic	-5101
▁communication	-5102
▁90	-5103
▁keer	-5104
▁itself	-5105
emt	-5106
▁green	-5107
ère	-5108
question	-5109
▁versterken	-5110
prof	-5111
▁Cor	-5112
▁concent	-5113
ha	-5114
▁output	-5115
▁saying	-5116
ileage	-5117
▁China	-5118
▁feedback	-5119
▁season	-5120
genwoord	-5121
enschappen	-5122
▁cleaning	-5123
▁waarborgen	-5124
7,	-5125
▁Im	-5126
onday	-5127
▁walk	-5128
▁achieve	-5129
maak	-5130
gende	-5131
▁surface	-5132
▁oven	-5133
ober	-5134
▁assess	-5135
▁remove	-5136
▁towards	-5137
iele	-5138
ijken	-5139
igd	-5140
▁win	-5141
▁global	-5142
▁moeilijk	-5143
▁cra	-5144
Short	-5145
inary	-5146
▁laag	-5147
▁train	-5148
uth	-5149
irt	-5150
ieg	-5151
▁bedrijfs	-5152
▁aanzienlijk	-5153
▁element	-5154
Im	-5155
total	-5156
▁appear	-5157
▁college	-5158
iveaus	-5159
stre	-5160
ervice	-5161
Convert	-5162
▁comment	-5163
EL	-5164
lin	-5165
ae	-5166
▁updates	-5167
Brightness	-5168
▁seems	-5169
▁carbon	-5170
tist	-5171
▁brow	-5172
werkers	-5173
▁moving	-5174
olf	-5175
rijk	-5176
▁Des	-5177
▁eyes	-5178
▁waarop	-5179
One	-5180
▁While	-5181
▁immediately	-5182
▁medi	-5183
▁planning	-5184
ado	-5185
▁involved	-5186
verl	-5187
elect	-5188
standigheden	-5189
mid	-5190
ijden	-5191
▁South	-5192
▁folder	-5193
▁teaching	-5194
ports	-5195
washer	-5196
ev	-5197
▁dynam	-5198
▁enabled	-5199
▁materialen	-5200
▁behandeling	-5201
-4	-5202
step	-5203
▁suff	-5204
▁driving	-5205
▁ride	-5206
▁receive	-5207
topic	-5208
uetooth	-5209
▁:	-5210
▁circ	-5211
olen	-5212
Share	-5213
covery	-5214
▁blijft	-5215
▁diensten	-5216
volen	-5217
abetes	-5218
voerd	-5219
▁300	-5220
▁places	-5221
▁alcohol	-5222
tish	-5223
▁kleur	-5224
▁His	-5225
connect	-5226
▁tand	-5227
API	-5228
▁eye	-5229
▁beginnen	-5230
site	-5231
tial	-5232
▁Maar	-5233
▁wid	-5234
▁cryptoc	-5235
▁ven	-5236
rische	-5237
▁fight	-5238
▁cool	-5239
▁quite	-5240
ira	-5241
tre	-5242
▁jon	-5243
▁maximum	-5244
othe	-5245
▁Her	-5246
ilities	-5247
▁interpre	-5248
ached	-5249
▁society	-5250
▁od	-5251
luetooth	-5252
▁negative	-5253
▁blog	-5254
▁worth	-5255
eenkom	-5256
▁toekomst	-5257
uki	-5258
hood	-5259
ading	-5260
osen	-5261
▁personen	-5262
ji	-5263
-20	-5264
lers	-5265
▁demand	-5266
9,	-5267
Pl	-5268
vacuum	-5269
▁decl	-5270
▁emails	-5271
▁methode	-5272
▁went	-5273
▁norm	-5274
def	-5275
ils	-5276
▁kant	-5277
▁summer	-5278
position	-5279
▁Default	-5280
meen	-5281
platform	-5282
▁storage	-5283
▁tap	-5284
▁methods	-5285
ograf	-5286
eleb	-5287
▁tablet	-5288
▁optimal	-5289
AM	-5290
▁mentale	-5291
chant	-5292
▁reken	-5293
▁AM	-5294
iliteit	-5295
ocation	-5296
▁aanwez	-5297
▁industrie	-5298
war	-5299
▁Day	-5300
▁office	-5301
▁aanb	-5302
":"1	-5303
▁eten	-5304
▁rep	-5305
speaker	-5306
▁latest	-5307
ND	-5308
bit	-5309
▁girl	-5310
▁positie	-5311
mostat	-5312
▁national	-5313
ula	-5314
▁programs	-5315
Description	-5316
▁Then	-5317
ón	-5318
teit	-5319
▁ball	-5320
▁viol	-5321
▁Echter	-5322
▁lines	-5323
▁integ	-5324
▁instant	-5325
▁families	-5326
goed	-5327
▁Let	-5328
▁woord	-5329
▁climate	-5330
departure	-5331
▁gets	-5332
▁frame	-5333
EM	-5334
ugust	-5335
▁confl	-5336
metric	-5337
▁deter	-5338
▁seem	-5339
▁cas	-5340
▁Staten	-5341
.0,"	-5342
▁slaap	-5343
▁virus	-5344
▁third	-5345
▁fem	-5346
▁anyone	-5347
anceerde	-5348
Stop	-5349
ison	-5350
▁moderne	-5351
arts	-5352
Gener	-5353
▁lost	-5354
only	-5355
4-	-5356
TC	-5357
when	-5358
▁hyp	-5359
tempt	-5360
▁century	-5361
▁fix	-5362
▁und	-5363
format	-5364
▁North	-5365
▁pen	-5366
iers	-5367
tise	-5368
▁util	-5369
▁discover	-5370
▁essential	-5371
make	-5372
▁Vol	-5373
▁zicht	-5374
▁veroorzaken	-5375
hib	-5376
▁weeks	-5377
priority	-5378
▁inclusief	-5379
ctors	-5380
password	-5381
▁Ab	-5382
▁drin	-5383
▁patient	-5384
▁creating	-5385
▁Germ	-5386
▁spo	-5387
▁veranderen	-5388
quest	-5389
▁became	-5390
▁private	-5391
cles	-5392
▁GE	-5393
profile	-5394
▁kansen	-5395
▁recommended	-5396
▁exc	-5397
▁toev	-5398
▁rand	-5399
▁algemeen	-5400
▁push	-5401
▁vertegenwoord	-5402
wise	-5403
▁leaders	-5404
ilige	-5405
▁belie	-5406
▁condu	-5407
▁milit	-5408
▁culturele	-5409
tely	-5410
chien	-5411
vanced	-5412
)"},"	-5413
ned	-5414
dentif	-5415
used	-5416
▁son	-5417
teren	-5418
▁kenmerken	-5419
▁dr	-5420
eta	-5421
▁ant	-5422
ague	-5423
iode	-5424
▁Bar	-5425
living	-5426
▁serious	-5427
iger	-5428
▁vide	-5429
gez	-5430
igures	-5431
▁map	-5432
ipment	-5433
Schedule	-5434
▁benefit	-5435
ains	-5436
▁keuze	-5437
▁woorden	-5438
▁movement	-5439
pend	-5440
iring	-5441
convert	-5442
▁upon	-5443
▁teacher	-5444
▁manieren	-5445
aul	-5446
▁generally	-5447
▁Lear	-5448
voer	-5449
trigger	-5450
▁Hoewel	-5451
▁diep	-5452
Amer	-5453
andid	-5454
▁hom	-5455
▁King	-5456
▁identi	-5457
▁increased	-5458
▁beoordelen	-5459
rost	-5460
▁lin	-5461
AL	-5462
eller	-5463
return	-5464
▁alerts	-5465
▁maybe	-5466
▁stappen	-5467
izer	-5468
▁richten	-5469
USD	-5470
▁bouwen	-5471
cons	-5472
ermine	-5473
▁ticket	-5474
42	-5475
antie	-5476
▁purchase	-5477
▁veiligheid	-5478
▁Earth	-5479
iest	-5480
dinner	-5481
gb	-5482
▁199	-5483
results	-5484
5,	-5485
dr	-5486
▁reasons	-5487
ws	-5488
onom	-5489
▁Rapid	-5490
▁staff	-5491
▁server	-5492
▁features	-5493
current	-5494
▁causes	-5495
andem	-5496
▁iedereen	-5497
Or	-5498
▁volle	-5499
uigen	-5500
▁feet	-5501
bluetooth	-5502
▁sem	-5503
▁prijs	-5504
▁policy	-5505
"}}}},{"	-5506
▁verbonden	-5507
▁23	-5508
▁recipe	-5509
▁aanbevolen	-5510
elijks	-5511
▁Park	-5512
▁calories	-5513
viv	-5514
▁enige	-5515
▁occur	-5516
ceren	-5517
urende	-5518
▁array	-5519
▁miles	-5520
Notification	-5521
bing	-5522
▁lief	-5523
▁scene	-5524
▁spent	-5525
pel	-5526
wet	-5527
▁coming	-5528
▁zit	-5529
Title	-5530
dische	-5531
▁variety	-5532
▁omvatten	-5533
▁schrijven	-5534
iff	-5535
▁groep	-5536
ography	-5537
▁wall	-5538
▁input	-5539
health	-5540
isture	-5541
":"2025-0	-5542
▁March	-5543
ativ	-5544
ticket	-5545
▁rond	-5546
▁hope	-5547
▁aandoen	-5548
//	-5549
▁3.	-5550
▁database	-5551
▁inzichten	-5552
laag	-5553
arily	-5554
▁enter	-5555
▁rules	-5556
▁coffee	-5557
▁protect	-5558
indt	-5559
▁shift	-5560
▁duurzame	-5561
cut	-5562
▁vermeld	-5563
det	-5564
▁fan	-5565
▁fail	-5566
▁empty	-5567
lim	-5568
▁hon	-5569
▁corre	-5570
▁letter	-5571
bake	-5572
threshold	-5573
▁force	-5574
▁zeggen	-5575
▁argument	-5576
▁units	-5577
▁lesson	-5578
▁completely	-5579
agra	-5580
▁rein	-5581
▁pag	-5582
▁bronnen	-5583
cheduled	-5584
abul	-5585
esten	-5586
▁pretty	-5587
▁Pres	-5588
▁robot	-5589
▁verkrijgen	-5590
▁participants	-5591
▁Will	-5592
▁files	-5593
▁Chris	-5594
▁flash	-5595
▁compared	-5596
▁Educ	-5597
▁dragen	-5598
▁veranderingen	-5599
eries	-5600
▁tijds	-5601
ontwikkel	-5602
ache	-5603
▁gewicht	-5604
▁developed	-5605
▁political	-5606
▁Don	-5607
▁player	-5608
▁selected	-5609
▁Mark	-5610
▁ander	-5611
▁WiFi	-5612
verse	-5613
iseerde	-5614
clean	-5615
ellow	-5616
▁wanted	-5617
Door	-5618
method	-5619
stra	-5620
▁Zijn	-5621
▁milk	-5622
move	-5623
▁traditional	-5624
▁implied	-5625
slot	-5626
▁veget	-5627
directions	-5628
anu	-5629
▁opbouw	-5630
▁80	-5631
▁brengen	-5632
:2	-5633
▁afhankelijk	-5634
priate	-5635
▁drive	-5636
▁Jul	-5637
▁spot	-5638
ibration	-5639
navigation	-5640
According	-5641
fol	-5642
▁fer	-5643
▁memory	-5644
▁happened	-5645
thern	-5646
▁chosen	-5647
▁rights	-5648
▁incoming	-5649
ued	-5650
▁egg	-5651
cipal	-5652
power	-5653
audio	-5654
▁beau	-5655
▁denken	-5656
▁plastic	-5657
▁verwijderen	-5658
iforn	-5659
▁RapidAPI	-5660
":10	-5661
ivil	-5662
pril	-5663
▁recip	-5664
▁stage	-5665
Records	-5666
▁niveau	-5667
▁warning	-5668
▁analyse	-5669
ny	-5670
▁foods	-5671
▁professionele	-5672
Col	-5673
▁Net	-5674
ships	-5675
▁Gebruik	-5676
▁fish	-5677
▁cryptocurrency	-5678
forward	-5679
eful	-5680
ufact	-5681
▁remaining	-5682
▁lever	-5683
cm	-5684
▁legal	-5685
beelden	-5686
look	-5687
matic	-5688
▁attempt	-5689
▁included	-5690
sound	-5691
ST	-5692
nel	-5693
carri	-5694
▁scen	-5695
▁spelers	-5696
inc	-5697
▁angst	-5698
▁gemeenschap	-5699
kings	-5700
▁cloud	-5701
▁images	-5702
iling	-5703
▁opportunity	-5704
▁winter	-5705
▁veroorzaakt	-5706
▁users	-5707
zed	-5708
ronen	-5709
▁betere	-5710
Te	-5711
▁pap	-5712
▁lif	-5713
akers	-5714
album	-5715
num	-5716
band	-5717
▁vle	-5718
▁examples	-5719
▁Dus	-5720
Ze	-5721
▁kri	-5722
analy	-5723
efore	-5724
▁filtered	-5725
▁oude	-5726
▁geschikt	-5727
▁Now	-5728
▁easier	-5729
▁Bluetooth	-5730
▁parameter	-5731
grams	-5732
▁booking	-5733
▁dish	-5734
▁solution	-5735
ijd	-5736
dose	-5737
▁batter	-5738
▁picture	-5739
hou	-5740
▁beoor	-5741
▁slecht	-5742
▁command	-5743
▁feeling	-5744
▁wild	-5745
▁stories	-5746
▁kern	-5747
▁echte	-5748
▁fuel	-5749
▁samenwerking	-5750
IC	-5751
▁guide	-5752
unities	-5753
▁voorbeeld	-5754
▁2024	-5755
▁connection	-5756
▁Act	-5757
acement	-5758
inese	-5759
▁visual	-5760
▁vergelijk	-5761
▁First	-5762
▁fetch	-5763
▁Bro	-5764
▁pas	-5765
essor	-5766
report	-5767
▁library	-5768
ekt	-5769
otes	-5770
▁elements	-5771
trip	-5772
▁zeker	-5773
iddelde	-5774
▁exec	-5775
Contact	-5776
....	-5777
▁felt	-5778
▁*	-5779
▁published	-5780
▁ton	-5781
ricul	-5782
▁partner	-5783
▁pattern	-5784
▁GEEN	-5785
bru	-5786
▁upcoming	-5787
▁consumption	-5788
pan	-5789
▁CC	-5790
wers	-5791
▁Why	-5792
▁capt	-5793
Sc	-5794
fr	-5795
stain	-5796
▁goals	-5797
▁threshold	-5798
pes	-5799
▁'2025-03-15	-5800
▁Val	-5801
▁celeb	-5802
▁thread	-5803
ili	-5804
▁cold	-5805
ras	-5806
▁dezelfde	-5807
▁caused	-5808
pra	-5809
acing	-5810
▁competi	-5811
▁determine	-5812
▁apps	-5813
tijl	-5814
▁swe	-5815
host	-5816
utor	-5817
▁Most	-5818
▁reduc	-5819
▁advant	-5820
▁minimum	-5821
alm	-5822
▁nor	-5823
▁zij	-5824
▁500	-5825
onds	-5826
vection	-5827
▁objects	-5828
▁voc	-5829
route	-5830
▁Colle	-5831
▁dinner	-5832
▁Bijvoorbeeld	-5833
▁cart	-5834
▁spre	-5835
▁transport	-5836
87	-5837
▁Center	-5838
);	-5839
asc	-5840
rijd	-5841
▁stimul	-5842
▁platforms	-5843
DF	-5844
box	-5845
Each	-5846
▁abs	-5847
▁Black	-5848
cheiden	-5849
gree	-5850
▁dim	-5851
▁mee	-5852
▁integr	-5853
▁verdict	-5854
▁HH	-5855
cope	-5856
▁aren	-5857
▁commer	-5858
▁vergelij	-5859
Some	-5860
▁lack	-5861
eerd	-5862
▁doctor	-5863
▁tweede	-5864
Are	-5865
try	-5866
▁familie	-5867
▁controleren	-5868
Ste	-5869
bar	-5870
zoe	-5871
▁bespre	-5872
acters	-5873
▁fields	-5874
▁increasing	-5875
▁sequ	-5876
66	-5877
▁allowed	-5878
▁architect	-5879
▁onderwerp	-5880
▁sus	-5881
comple	-5882
▁navig	-5883
umenten	-5884
▁Tr	-5885
▁eeuw	-5886
lation	-5887
▁planten	-5888
▁alles	-5889
▁vertrouwen	-5890
].	-5891
voice	-5892
▁State	-5893
\":	-5894
zit	-5895
▁god	-5896
▁dagen	-5897
▁overwegen	-5898
▁toest	-5899
▁Canada	-5900
▁constant	-5901
▁schade	-5902
▁hear	-5903
▁affect	-5904
ggers	-5905
mazon	-5906
Se	-5907
▁deci	-5908
▁suggereert	-5909
100	-5910
▁costs	-5911
▁minuten	-5912
▁ervaringen	-5913
▁humans	-5914
▁useful	-5915
▁detailed	-5916
fil	-5917
anish	-5918
Length	-5919
▁Fin	-5920
▁dates	-5921
▁rates	-5922
▁Us	-5923
clusie	-5924
esse	-5925
▁geav	-5926
▁speci	-5927
▁offers	-5928
▁manager	-5929
▁section	-5930
▁favorite	-5931
confirmation	-5932
By	-5933
Nee	-5934
result	-5935
▁cook	-5936
▁economic	-5937
▁changed	-5938
▁krachtige	-5939
main	-5940
▁motiv	-5941
▁piece	-5942
▁voorsp	-5943
▁benadrukt	-5944
DE	-5945
▁led	-5946
tick	-5947
▁complexe	-5948
zonder	-5949
▁numer	-5950
▁contract	-5951
":[{"	-5952
▁Tool	-5953
large	-5954
outen	-5955
anci	-5956
mute	-5957
print	-5958
enty	-5959
▁gradu	-5960
▁beïnvloedt	-5961
bas	-5962
▁probe	-5963
▁uitgebreide	-5964
ka	-5965
▁Ed	-5966
▁hit	-5967
▁professionals	-5968
ights	-5969
titude	-5970
200	-5971
pdf	-5972
▁id	-5973
dies	-5974
▁elkaar	-5975
34	-5976
▁leaves	-5977
▁Ke	-5978
▁compar	-5979
ringtone	-5980
▁preferences	-5981
▁Em	-5982
leden	-5983
▁deliver	-5984
lig	-5985
appl	-5986
▁toll	-5987
Go	-5988
armacy	-5989
uper	-5990
htt	-5991
content	-5992
▁hogere	-5993
▁historical	-5994
','	-5995
▁tab	-5996
itivity	-5997
▁growing	-5998
▁gevolgen	-5999
bron	-6000
▁shown	-6001
fficient	-6002
cipl	-6003
yth	-6004
▁held	-6005
▁overt	-6006
▁Red	-6007
▁players	-6008
----	-6009
buds	-6010
▁animal	-6011
SV	-6012
▁amb	-6013
adata	-6014
▁told	-6015
window	-6016
utie	-6017
▁fair	-6018
▁adver	-6019
achment	-6020
pects	-6021
▁volt	-6022
▁metric	-6023
▁sustain	-6024
▁beginning	-6025
idity	-6026
urday	-6027
▁vroeg	-6028
aald	-6029
▁wis	-6030
ijs	-6031
▁Child	-6032
▁automatically	-6033
neg	-6034
▁teeth	-6035
allenge	-6036
▁belangrijkheid	-6037
PL	-6038
▁Sm	-6039
Find	-6040
▁saw	-6041
▁trust	-6042
oma	-6043
groep	-6044
▁diabetes	-6045
▁chance	-6046
cause	-6047
▁II	-6048
▁determin	-6049
▁beeld	-6050
▁voert	-6051
erschap	-6052
▁kilome	-6053
Car	-6054
heavy	-6055
▁wear	-6056
▁solar	-6057
zaamheid	-6058
▁critical	-6059
feed	-6060
▁version	-6061
PU	-6062
▁emotionele	-6063
kant	-6064
▁lim	-6065
▁City	-6066
▁krij	-6067
▁stroom	-6068
":4	-6069
life	-6070
ueel	-6071
▁vet	-6072
▁oppervl	-6073
▁Go	-6074
▁weet	-6075
▁smaak	-6076
functie	-6077
▁concurr	-6078
▁grade	-6079
▁verwacht	-6080
ously	-6081
▁zouden	-6082
▁park	-6083
izes	-6084
rust	-6085
▁absol	-6086
▁forms	-6087
▁hoogte	-6088
hu	-6089
ref	-6090
dred	-6091
▁Californ	-6092
structions	-6093
olls	-6094
DA	-6095
▁tests	-6096
umn	-6097
ulpm	-6098
▁studie	-6099
iques	-6100
▁volledige	-6101
▁Here	-6102
▁attra	-6103
▁direction	-6104
▁Isl	-6105
▁mist	-6106
gingen	-6107
▁miljoen	-6108
▁subst	-6109
riculum	-6110
▁positieve	-6111
stoffen	-6112
istische	-6113
That	-6114
▁vrouw	-6115
formed	-6116
▁supply	-6117
vey	-6118
▁klim	-6119
compose	-6120
▁feeding	-6121
ini	-6122
oper	-6123
verand	-6124
▁choice	-6125
interval	-6126
zens	-6127
▁insurance	-6128
▁vroe	-6129
▁Celsius	-6130
strateg	-6131
▁capital	-6132
▁overall	-6133
▁characters	-6134
500	-6135
▁2021	-6136
Total	-6137
ospital	-6138
▁stored	-6139
Data	-6140
cean	-6141
▁shar	-6142
▁vriend	-6143
▁billing	-6144
hop	-6145
▁Science	-6146
▁hundred	-6147
CO	-6148
"},{"	-6149
▁wereldwij	-6150
▁medewerkers	-6151
Creat	-6152
▁fine	-6153
▁verke	-6154
more	-6155
▁anx	-6156
atives	-6157
stitute	-6158
▁vijf	-6159
▁initial	-6160
▁maxim	-6161
ora	-6162
▁sugar	-6163
▁whose	-6164
▁beveilig	-6165
pon	-6166
▁Many	-6167
▁sources	-6168
▁dicht	-6169
▁outdoor	-6170
▁bijdragen	-6171
cular	-6172
▁pause	-6173
▁eenvoudige	-6174
ja	-6175
▁ok	-6176
From	-6177
32	-6178
▁imag	-6179
▁laatste	-6180
▁Air	-6181
▁mij	-6182
▁sounds	-6183
▁Cre	-6184
▁pray	-6185
▁maand	-6186
▁leading	-6187
appointment	-6188
▁aim	-6189
▁theory	-6190
▁misschien	-6191
ISO	-6192
oost	-6193
grond	-6194
rd	-6195
Met	-6196
▁pages	-6197
Full	-6198
▁denk	-6199
ctively	-6200
▁langdu	-6201
sluit	-6202
▁para	-6203
points	-6204
▁bereik	-6205
▁vri	-6206
▁Fran	-6207
▁income	-6208
▁oog	-6209
▁obtain	-6210
ella	-6211
▁nad	-6212
▁scala	-6213
▁totale	-6214
ipped	-6215
▁plek	-6216
Request	-6217
▁particularly	-6218
▁kopen	-6219
▁Intern	-6220
▁interview	-6221
▁Mid	-6222
▁desk	-6223
▁kool	-6224
lijnen	-6225
expense	-6226
▁statement	-6227
urop	-6228
allow	-6229
▁notice	-6230
▁providing	-6231
▁effectieve	-6232
ito	-6233
transaction	-6234
chain	-6235
▁pandem	-6236
▁matching	-6237
Tube	-6238
rise	-6239
▁moed	-6240
dering	-6241
▁greater	-6242
▁1.0	-6243
▁dieet	-6244
haps	-6245
▁Even	-6246
ept	-6247
sil	-6248
atim	-6249
dete	-6250
coffee	-6251
▁danger	-6252
▁eventuele	-6253
FF	-6254
ooit	-6255
▁woman	-6256
ga	-6257
▁export	-6258
lot	-6259
▁Russ	-6260
formatie	-6261
schap	-6262
▁elim	-6263
follow	-6264
▁Friday	-6265
▁threat	-6266
▁vooruit	-6267
convection	-6268
ertainment	-6269
▁qual	-6270
▁Hol	-6271
▁Our	-6272
▁Inst	-6273
▁trail	-6274
ications	-6275
▁gemiddelde	-6276
ulture	-6277
zaak	-6278
model	-6279
archive	-6280
inv	-6281
▁Aut	-6282
vision	-6283
ees	-6284
avoid	-6285
isode	-6286
▁opin	-6287
▁renew	-6288
▁tasks	-6289
▁shop	-6290
ickup	-6291
rab	-6292
arde	-6293
▁toewij	-6294
▁Research	-6295
▁bevatten	-6296
▁download	-6297
▁bor	-6298
▁opnieuw	-6299
kunde	-6300
▁successful	-6301
ham	-6302
soft	-6303
▁lic	-6304
inger	-6305
▁feit	-6306
▁Onder	-6307
▁cards	-6308
▁ervan	-6309
▁floor	-6310
▁middle	-6311
▁earth	-6312
▁British	-6313
▁hetzelfde	-6314
▁customer	-6315
▁relaties	-6316
▁fear	-6317
▁fab	-6318
▁Sim	-6319
▁termen	-6320
sort	-6321
▁bedo	-6322
dustrie	-6323
▁juridische	-6324
craft	-6325
ingred	-6326
▁background	-6327
eten	-6328
AI	-6329
even	-6330
▁trade	-6331
entific	-6332
Take	-6333
▁pijn	-6334
▁stuff	-6335
▁fysieke	-6336
▁landen	-6337
▁mother	-6338
▁incident	-6339
▁appropriate	-6340
-16	-6341
▁UK	-6342
▁gezien	-6343
iteind	-6344
usiness	-6345
aarom	-6346
style	-6347
irus	-6348
custom	-6349
▁actual	-6350
latitude	-6351
▁talking	-6352
▁verhalen	-6353
▁onderzoeken	-6354
▁wed	-6355
▁exce	-6356
▁guests	-6357
▁verbatim	-6358
▁2,	-6359
Mark	-6360
▁prem	-6361
▁Chinese	-6362
pite	-6363
▁fra	-6364
▁Techn	-6365
transport	-6366
▁math	-6367
abulary	-6368
▁ouders	-6369
09	-6370
▁suggests	-6371
ades	-6372
itable	-6373
Trans	-6374
▁onth	-6375
icated	-6376
▁thous	-6377
iration	-6378
fry	-6379
▁arts	-6380
▁roads	-6381
atively	-6382
▁strategieën	-6383
mes	-6384
▁carry	-6385
ros	-6386
▁obje	-6387
▁toont	-6388
entists	-6389
▁creative	-6390
anging	-6391
▁sample	-6392
▁administ	-6393
RE	-6394
ondon	-6395
Par	-6396
tolls	-6397
▁cancel	-6398
▁highly	-6399
▁restri	-6400
▁spending	-6401
▁opportunities	-6402
Now	-6403
andaag	-6404
cement	-6405
house	-6406
▁dollar	-6407
iency	-6408
ashing	-6409
▁oorspron	-6410
▁vergro	-6411
onie	-6412
spot	-6413
▁bul	-6414
▁regarding	-6415
won	-6416
▁Bra	-6417
mas	-6418
With	-6419
atever	-6420
ederal	-6421
▁sites	-6422
▁giving	-6423
▁preset	-6424
Post	-6425
▁decre	-6426
▁worked	-6427
longitude	-6428
▁burn	-6429
rating	-6430
▁Please	-6431
▁chemical	-6432
beren	-6433
yond	-6434
▁adap	-6435
regelen	-6436
ersp	-6437
oit	-6438
enses	-6439
attle	-6440
scribe	-6441
▁cloth	-6442
Recipient	-6443
screenshot	-6444
▁uitspraak	-6445
uken	-6446
ender	-6447
neutral	-6448
▁experiences	-6449
▁Mc	-6450
cool	-6451
▁sam	-6452
▁rich	-6453
▁interesting	-6454
▁wie	-6455
prin	-6456
▁gun	-6457
endom	-6458
resume	-6459
▁Bel	-6460
dee	-6461
komt	-6462
Temperature	-6463
▁toepassingen	-6464
):	-6465
instant	-6466
▁covered	-6467
6-0	-6468
plit	-6469
▁Pre	-6470
▁kill	-6471
zek	-6472
▁labor	-6473
iry	-6474
romen	-6475
omstige	-6476
▁random	-6477
▁publiek	-6478
▁verspre	-6479
olar	-6480
▁distrib	-6481
formation	-6482
▁partners	-6483
▁belasting	-6484
CT	-6485
▁geh	-6486
▁package	-6487
▁importance	-6488
rot	-6489
1","	-6490
▁instit	-6491
quick	-6492
teria	-6493
▁High	-6494
vuldig	-6495
▁client	-6496
▁explicit	-6497
▁Education	-6498
▁ingredients	-6499
Mar	-6500
▁More	-6501
▁developing	-6502
game	-6503
friend	-6504
▁French	-6505
▁forget	-6506
▁herstel	-6507
▁limited	-6508
▁rapp	-6509
▁lezen	-6510
▁techniques	-6511
▁Are	-6512
plate	-6513
▁lange	-6514
ril	-6515
radi	-6516
▁Just	-6517
switch	-6518
▁began	-6519
▁detail	-6520
▁nation	-6521
entially	-6522
▁grotere	-6523
▁locatie	-6524
▁organiz	-6525
BA	-6526
.5,	-6527
▁TH	-6528
▁snelheid	-6529
▁contains	-6530
▁experiment	-6531
PR	-6532
stud	-6533
plier	-6534
▁dollars	-6535
ising	-6536
▁gewe	-6537
country	-6538
▁traffic	-6539
▁equipment	-6540
▁mal	-6541
▁None	-6542
bedroom	-6543
▁netwerk	-6544
▁manufact	-6545
mber	-6546
▁nood	-6547
ibrate	-6548
▁equal	-6549
▁Sk	-6550
▁Gar	-6551
▁strug	-6552
▁videos	-6553
▁geavanceerde	-6554
coin	-6555
▁loy	-6556
▁attack	-6557
ticipants	-6558
▁opbouwen	-6559
▁measurement	-6560
▁environmental	-6561
Reg	-6562
Adjust	-6563
▁symptomen	-6564
era	-6565
ocity	-6566
backyard	-6567
rige	-6568
▁kort	-6569
▁defini	-6570
▁hearing	-6571
▁phot	-6572
▁race	-6573
▁owners	-6574
guest	-6575
lines	-6576
▁reeks	-6577
▁remind	-6578
shared	-6579
▁starts	-6580
▁returning	-6581
.[	-6582
aseerd	-6583
▁fully	-6584
entences	-6585
▁aangezien	-6586
▁older	-6587
▁anders	-6588
ped	-6589
▁kop	-6590
ican	-6591
▁Ben	-6592
▁paid	-6593
uli	-6594
▁Gl	-6595
▁ST	-6596
▁communities	-6597
va	-6598
▁uitste	-6599
Save	-6600
ping	-6601
▁lose	-6602
▁backup	-6603
minal	-6604
▁meters	-6605
unk	-6606
oogt	-6607
▁elementen	-6608
":"","	-6609
▁vanaf	-6610
▁adults	-6611
▁milieu	-6612
"}}}]	-6613
▁veelvoor	-6614
08	-6615
pin	-6616
▁teams	-6617
▁timestamp	-6618
Ab	-6619
cond	-6620
etail	-6621
Flight	-6622
▁alone	-6623
▁afbeeld	-6624
▁classes	-6625
▁capacity	-6626
▁regelmatig	-6627
ING	-6628
cient	-6629
▁select	-6630
arize	-6631
▁blue	-6632
iseerd	-6633
▁refle	-6634
daily	-6635
ython	-6636
▁projects	-6637
ago	-6638
▁Char	-6639
▁nearby	-6640
▁turns	-6641
nee	-6642
heart	-6643
positive	-6644
▁plannen	-6645
ione	-6646
▁Brit	-6647
▁aanpassen	-6648
hr	-6649
▁drop	-6650
▁April	-6651
▁degree	-6652
negative	-6653
▁afstand	-6654
▁collection	-6655
rough	-6656
iteindelijk	-6657
▁Gener	-6658
▁verbinding	-6659
▁evenals	-6660
rote	-6661
iat	-6662
▁au	-6663
▁uitvoeren	-6664
paste	-6665
▁Stre	-6666
▁tree	-6667
▁begon	-6668
weight	-6669
▁speel	-6670
▁couple	-6671
▁patiënten	-6672
meeting	-6673
201	-6674
but	-6675
▁draag	-6676
▁advice	-6677
volution	-6678
pid	-6679
ander	-6680
zetten	-6681
systemen	-6682
broil	-6683
ignore	-6684
▁holid	-6685
▁economische	-6686
▁waardevolle	-6687
loy	-6688
leven	-6689
▁neigh	-6690
ictionary	-6691
ission	-6692
session	-6693
unblock	-6694
▁surpri	-6695
aardigheid	-6696
▁Dav	-6697
▁cogn	-6698
aching	-6699
▁eerst	-6700
▁parent	-6701
▁cultuur	-6702
proken	-6703
ows	-6704
▁mole	-6705
Desired	-6706
Creates	-6707
▁becomes	-6708
iny	-6709
punt	-6710
▁isol	-6711
unlock	-6712
▁pregn	-6713
tenance	-6714
▁ded	-6715
▁club	-6716
leding	-6717
▁plans	-6718
▁toepassing	-6719
Na	-6720
▁antwoord	-6721
▁voldoende	-6722
▁mogelijkheid	-6723
▁career	-6724
▁feature	-6725
▁afval	-6726
▁beslissingen	-6727
▁larger	-6728
▁gig	-6729
oploss	-6730
▁gebeurten	-6731
":12	-6732
▁groeien	-6733
▁voorbere	-6734
▁organisatie	-6735
▁responsible	-6736
▁temperatuur	-6737
44	-6738
rijke	-6739
▁sets	-6740
▁brief	-6741
▁expos	-6742
igingen	-6743
35	-6744
Dr	-6745
syn	-6746
▁username	-6747
FR	-6748
▁persoonlijk	-6749
structuur	-6750
▁populaire	-6751
foon	-6752
pati	-6753
▁diepe	-6754
industrie	-6755
cil	-6756
▁Web	-6757
▁hadden	-6758
ffect	-6759
issue	-6760
iliters	-6761
▁nauwkeurig	-6762
lunch	-6763
://	-6764
duur	-6765
▁gedaan	-6766
▁breathing	-6767
EUR	-6768
▁road	-6769
▁nooit	-6770
▁conver	-6771
PT	-6772
gesch	-6773
gesteld	-6774
▁Bo	-6775
▁rock	-6776
▁lopen	-6777
Content	-6778
ctieve	-6779
▁recently	-6780
elijkheden	-6781
▁town	-6782
IV	-6783
fall	-6784
▁voorke	-6785
lor	-6786
process	-6787
▁gelijk	-6788
▁graph	-6789
▁middelen	-6790
bele	-6791
moder	-6792
atische	-6793
▁podcast	-6794
kers	-6795
▁cro	-6796
▁erg	-6797
▁stof	-6798
▁yard	-6799
▁links	-6800
▁industri	-6801
▁ET	-6802
blue	-6803
▁separate	-6804
▁rule	-6805
Hoewel	-6806
▁scheduled	-6807
entic	-6808
leave	-6809
▁miner	-6810
▁sterk	-6811
▁manage	-6812
▁begint	-6813
▁flexib	-6814
▁kost	-6815
▁protein	-6816
cret	-6817
0000	-6818
▁stri	-6819
▁challenges	-6820
Record	-6821
BC	-6822
▁Na	-6823
▁loop	-6824
Starts	-6825
▁received	-6826
mater	-6827
▁opge	-6828
▁shape	-6829
▁topics	-6830
aka	-6831
▁vor	-6832
angen	-6833
enden	-6834
fin	-6835
▁quantity	-6836
emer	-6837
▁toekomstige	-6838
▁Every	-6839
Subject	-6840
▁wide	-6841
Bl	-6842
▁earlier	-6843
▁demonstr	-6844
▁priority	-6845
▁oplossing	-6846
▁70	-6847
▁exchange	-6848
mos	-6849
vin	-6850
▁lag	-6851
▁transit	-6852
zi	-6853
cur	-6854
▁Int	-6855
lying	-6856
▁beet	-6857
▁raad	-6858
wed	-6859
▁opties	-6860
rece	-6861
▁born	-6862
▁Trans	-6863
▁touch	-6864
▁cities	-6865
▁researchers	-6866
ternal	-6867
▁radio	-6868
▁speech	-6869
▁km	-6870
▁tuin	-6871
▁drink	-6872
▁suppl	-6873
Hand	-6874
▁pull	-6875
machine	-6876
▁located	-6877
▁opgenomen	-6878
▁arm	-6879
▁Verh	-6880
iar	-6881
▁gebruiker	-6882
fficiën	-6883
▁medium	-6884
▁aspecten	-6885
wood	-6886
snack	-6887
account	-6888
running	-6889
▁liefde	-6890
▁uitgevoerd	-6891
azard	-6892
▁refer	-6893
idents	-6894
extra	-6895
orage	-6896
▁From	-6897
cancel	-6898
dracht	-6899
▁hoofdoorz	-6900
SS	-6901
▁tend	-6902
network	-6903
▁figure	-6904
▁diverse	-6905
!!	-6906
89	-6907
cious	-6908
TP	-6909
vere	-6910
▁Ont	-6911
family	-6912
▁flu	-6913
▁reve	-6914
▁challenge	-6915
ano	-6916
pto	-6917
▁jo	-6918
utel	-6919
▁reported	-6920
▁decisions	-6921
kg	-6922
ffen	-6923
▁kid	-6924
▁clin	-6925
▁snelle	-6926
▁copy	-6927
▁draw	-6928
station	-6929
▁experts	-6930
▁gedurende	-6931
▁international	-6932
raw	-6933
clear	-6934
white	-6935
▁waste	-6936
▁inventory	-6937
tio	-6938
▁Jew	-6939
ercis	-6940
▁sell	-6941
▁gratis	-6942
▁speelt	-6943
appar	-6944
▁adem	-6945
▁huge	-6946
▁jonge	-6947
▁trends	-6948
▁generate	-6949
reservation	-6950
▁guid	-6951
▁airport	-6952
5%	-6953
isa	-6954
▁erns	-6955
LA	-6956
dy	-6957
ded	-6958
▁staan	-6959
▁beyond	-6960
▁regist	-6961
tt	-6962
ena	-6963
▁100.","	-6964
bin	-6965
▁opz	-6966
▁ople	-6967
versch	-6968
▁minim	-6969
▁Associ	-6970
▁cruciale	-6971
▁grootste	-6972
▁Mac	-6973
▁broad	-6974
Identif	-6975
reading	-6976
▁straight	-6977
▁horm	-6978
▁lots	-6979
▁automation	-6980
▁looks	-6981
▁heard	-6982
▁hulpm	-6983
▁inkom	-6984
▁aligned	-6985
ibly	-6986
▁hers	-6987
▁schad	-6988
▁ram	-6989
ummarize	-6990
▁apparaten	-6991
Initi	-6992
pendent	-6993
▁surround	-6994
inen	-6995
isha	-6996
ocra	-6997
▁variëren	-6998
While	-6999
▁middel	-7000
anges	-7001
ursday	-7002
▁dienst	-7003
▁gezonde	-7004
▁bevorder	-7005
zes	-7006
▁plaat	-7007
waarden	-7008
▁People	-7009
▁fig	-7010
▁Dec	-7011
▁Because	-7012
▁load	-7013
ipping	-7014
▁methoden	-7015
▁supplement	-7016
39	-7017
_00	-7018
ida	-7019
▁fresh	-7020
▁ur	-7021
▁East	-7022
MI	-7023
ald	-7024
works	-7025
charge	-7026
eningen	-7027
▁vre	-7028
▁scale	-7029
Sch	-7030
asure	-7031
recipe	-7032
▁prepar	-7033
▁toward	-7034
▁deadline	-7035
▁verandering	-7036
api	-7037
▁mul	-7038
▁oppos	-7039
stellen	-7040
stock	-7041
▁efficiëntie	-7042
▁San	-7043
▁Micro	-7044
▁chart	-7045
▁happy	-7046
▁protection	-7047
▁ul	-7048
alys	-7049
▁foto	-7050
▁signal	-7051
rinklers	-7052
dit	-7053
▁HT	-7054
▁PC	-7055
cific	-7056
▁habit	-7057
▁toege	-7058
▁learned	-7059
▁leeftijd	-7060
▁classroom	-7061
▁uitgebreid	-7062
▁milliliters	-7063
▁star	-7064
▁volw	-7065
rekking	-7066
▁creativ	-7067
▁powerful	-7068
-30	-7069
rint	-7070
wiss	-7071
▁kat	-7072
▁returned	-7073
▁customers	-7074
▁vermijden	-7075
▁strategy	-7076
▁interested	-7077
▁1:	-7078
▁investig	-7079
class	-7080
ourney	-7081
▁prices	-7082
▁segment	-7083
zie	-7084
▁allemaal	-7085
Aut	-7086
bell	-7087
ette	-7088
kking	-7089
▁academic	-7090
▁moisture	-7091
uld	-7092
▁'5	-7093
▁30,	-7094
▁father	-7095
▁recipients	-7096
Beg	-7097
Pe	-7098
hi	-7099
fen	-7100
▁dos	-7101
▁layer	-7102
▁behavi	-7103
Mo	-7104
hema	-7105
xygen	-7106
▁geval	-7107
▁prompt	-7108
▁zichzelf	-7109
▁activiteit	-7110
Dit	-7111
▁aangeb	-7112
▁virtual	-7113
▁eigenschappen	-7114
apping	-7115
▁pandemic	-7116
▁departure	-7117
lag	-7118
▁systemen	-7119
pers	-7120
ctief	-7121
owners	-7122
urrent	-7123
▁Program	-7124
▁ice	-7125
▁definition	-7126
anged	-7127
known	-7128
▁reality	-7129
inct	-7130
erden	-7131
▁testing	-7132
IP	-7133
acking	-7134
alt	-7135
City	-7136
anen	-7137
▁largest	-7138
▁sat	-7139
▁requirements	-7140
Make	-7141
▁essentiële	-7142
7-0	-7143
▁tv	-7144
atisf	-7145
▁Water	-7146
▁bound	-7147
▁intellig	-7148
otp	-7149
poor	-7150
▁Mex	-7151
Reply	-7152
rijden	-7153
▁College	-7154
houds	-7155
thema	-7156
▁gave	-7157
Minimum	-7158
▁Amazon	-7159
El	-7160
▁4.	-7161
▁Get	-7162
▁beide	-7163
▁regio	-7164
▁cursus	-7165
▁oplossingen	-7166
▁algor	-7167
▁individuele	-7168
sem	-7169
useum	-7170
▁mount	-7171
▁vroege	-7172
whenever	-7173
▁ich	-7174
anned	-7175
▁adop	-7176
▁wink	-7177
▁central	-7178
sun	-7179
xim	-7180
Does	-7181
aign	-7182
▁monthly	-7183
icon	-7184
appij	-7185
▁novel	-7186
▁affected	-7187
▁chapter	-7188
85	-7189
apie	-7190
aret	-7191
▁effecten	-7192
sms	-7193
leerde	-7194
▁County	-7195
▁situatie	-7196
▁mess	-7197
▁transaction	-7198
regen	-7199
witter	-7200
▁matches	-7201
▁therefore	-7202
reh	-7203
zers	-7204
▁gym	-7205
▁2019	-7206
▁gespre	-7207
emon	-7208
▁rating	-7209
▁repeat	-7210
▁nieuws	-7211
▁onderzoe	-7212
▁proberen	-7213
▁nutrition	-7214
▁thuis	-7215
▁applied	-7216
789	-7217
dry	-7218
area	-7219
timate	-7220
▁standaard	-7221
First	-7222
bsites	-7223
TS	-7224
ijna	-7225
team	-7226
▁Hun	-7227
arian	-7228
exercise	-7229
▁described	-7230
tijden	-7231
▁optie	-7232
curring	-7233
▁waarden	-7234
▁bek	-7235
▁rot	-7236
ision	-7237
loten	-7238
▁\	-7239
▁onbe	-7240
emming	-7241
▁rom	-7242
:00","	-7243
▁cultural	-7244
cp	-7245
aarna	-7246
▁geest	-7247
▁mig	-7248
▁browser	-7249
▁gerelate	-7250
▁watering	-7251
▁practices	-7252
has	-7253
uages	-7254
▁toewijding	-7255
▁aanzienlijke	-7256
▁princi	-7257
▁missing	-7258
▁curriculum	-7259
upport	-7260
ami	-7261
▁marri	-7262
▁noise	-7263
▁vision	-7264
▁La	-7265
▁klimaat	-7266
▁reference	-7267
tr	-7268
encies	-7269
▁announ	-7270
oda	-7271
entry	-7272
areness	-7273
▁anxiety	-7274
▁--	-7275
▁um	-7276
▁Java	-7277
▁Ital	-7278
▁toegank	-7279
▁24-	-7280
▁wasn	-7281
▁elimin	-7282
asse	-7283
▁seks	-7284
▁fruit	-7285
verlies	-7286
▁African	-7287
Hey	-7288
beh	-7289
ita	-7290
orge	-7291
▁jud	-7292
▁Isra	-7293
▁verhoogt	-7294
enschap	-7295
▁whatever	-7296
▁statistics	-7297
▁Ag	-7298
":30	-7299
▁liqu	-7300
▁loan	-7301
▁infra	-7302
▁employees	-7303
AD	-7304
Book	-7305
types	-7306
unday	-7307
▁smaller	-7308
HD	-7309
moed	-7310
uting	-7311
zeker	-7312
▁rijk	-7313
▁geloof	-7314
emergency	-7315
▁Open	-7316
▁extens	-7317
▁therapy	-7318
gezondheid	-7319
▁ontdekken	-7320
lijn	-7321
▁Aan	-7322
▁Face	-7323
▁voeren	-7324
▁geweest	-7325
agers	-7326
▁bike	-7327
edit	-7328
ibli	-7329
▁Pat	-7330
aches	-7331
▁June	-7332
▁consult	-7333
unte	-7334
▁applications	-7335
omer	-7336
path	-7337
vies	-7338
▁aid	-7339
▁infl	-7340
▁hoeveelheid	-7341
IM	-7342
gebied	-7343
iteren	-7344
Configures	-7345
stel	-7346
abling	-7347
▁diseases	-7348
▁eigendom	-7349
aliteit	-7350
▁produced	-7351
una	-7352
▁gall	-7353
▁articles	-7354
▁opzichte	-7355
▁vervangen	-7356
▁ooit	-7357
▁gespe	-7358
elijker	-7359
▁zetten	-7360
gegevens	-7361
▁analyseren	-7362
▁round	-7363
Don	-7364
mood	-7365
oopt	-7366
▁sea	-7367
▁tea	-7368
▁investment	-7369
▁citi	-7370
▁YouTube	-7371
▁hoofdoorzaak	-7372
rif	-7373
▁inspe	-7374
▁passes	-7375
▁apparaat	-7376
▁extremely	-7377
▁instrument	-7378
▁scientific	-7379
Fetch	-7380
▁Each	-7381
▁aank	-7382
▁fill	-7383
▁jobs	-7384
breakfast	-7385
umin	-7386
▁genereren	-7387
▁transcription	-7388
4","	-7389
▁jus	-7390
ensen	-7391
esterd	-7392
▁signs	-7393
▁sports	-7394
▁thoughts	-7395
▁ta	-7396
▁cast	-7397
orders	-7398
▁onders	-7399
▁endpoint	-7400
▁coordinates	-7401
Wanneer	-7402
▁gender	-7403
▁verkoop	-7404
▁dagelijks	-7405
rs	-7406
ugen	-7407
▁vul	-7408
▁jong	-7409
elijkse	-7410
▁economy	-7411
▁influence	-7412
▁procedure	-7413
▁Bu	-7414
▁vs	-7415
▁zin	-7416
ourses	-7417
▁employee	-7418
▁gebaseerd	-7419
▁streaming	-7420
She	-7421
▁verz	-7422
▁mouth	-7423
▁detect	-7424
▁walking	-7425
▁betrouwbare	-7426
Call	-7427
▁fant	-7428
▁trees	-7429
analyse	-7430
▁operation	-7431
▁bevol	-7432
▁laws	-7433
esterday	-7434
▁recorded	-7435
▁cash	-7436
abiliteit	-7437
▁interval	-7438
▁zu	-7439
▁voelen	-7440
▁beweging	-7441
ilos	-7442
▁vak	-7443
indows	-7444
▁Africa	-7445
▁sentence	-7446
▁strategies	-7447
These	-7448
▁dogs	-7449
atoren	-7450
▁release	-7451
kosten	-7452
maken	-7453
▁helping	-7454
▁vlie	-7455
folder	-7456
▁annual	-7457
▁behulp	-7458
▁Wanneer	-7459
▁voeding	-7460
▁gezondheidszorg	-7461
!"	-7462
SVP	-7463
▁5.	-7464
ogram	-7465
▁wifi	-7466
▁sharing	-7467
▁audience	-7468
▁collabor	-7469
After	-7470
▁drugs	-7471
Minutes	-7472
▁veilige	-7473
▁civil	-7474
▁explore	-7475
Ne	-7476
ums	-7477
asion	-7478
▁emotional	-7479
▁religious	-7480
peat	-7481
tiful	-7482
▁dans	-7483
ichting	-7484
diensten	-7485
3","	-7486
olic	-7487
▁Apple	-7488
▁elektrische	-7489
cz	-7490
usion	-7491
▁advoc	-7492
clusion	-7493
receipt	-7494
▁contacts	-7495
kundige	-7496
▁gear	-7497
▁herinn	-7498
▁functions	-7499
OL	-7500
Tot	-7501
agnes	-7502
uries	-7503
aarden	-7504
riting	-7505
itely	-7506
▁lessons	-7507
▁pow	-7508
▁tar	-7509
▁models	-7510
gas	-7511
Read	-7512
▁sin	-7513
folio	-7514
agraph	-7515
▁vervol	-7516
weg	-7517
▁doet	-7518
ometer	-7519
▁grootte	-7520
pload	-7521
▁gelu	-7522
▁dieper	-7523
▁criteria	-7524
La	-7525
▁perman	-7526
eah	-7527
eco	-7528
▁serve	-7529
▁processes	-7530
svp	-7531
uzz	-7532
▁seven	-7533
▁echter	-7534
messages	-7535
angt	-7536
▁shut	-7537
▁krijgt	-7538
asy	-7539
oli	-7540
▁Prof	-7541
wekken	-7542
▁confidence	-7543
▁verkl	-7544
▁belief	-7545
▁highest	-7546
▁himself	-7547
▁sa	-7548
▁relationships	-7549
ota	-7550
izont	-7551
▁heavy	-7552
▁warmte	-7553
ulf	-7554
oles	-7555
▁ble	-7556
▁opw	-7557
▁click	-7558
▁mirror	-7559
how	-7560
rill	-7561
▁cul	-7562
ciation	-7563
▁breast	-7564
▁gevaar	-7565
▁IP	-7566
▁PDF	-7567
uming	-7568
uesday	-7569
▁finding	-7570
▁educational	-7571
▁0-100	-7572
rein	-7573
▁kol	-7574
Could	-7575
▁acqu	-7576
estone	-7577
▁vacuum	-7578
▁gemakkelijk	-7579
Here	-7580
irty	-7581
▁hond	-7582
▁Street	-7583
▁openbare	-7584
▁bespreken	-7585
▁Mer	-7586
wide	-7587
besch	-7588
▁Paul	-7589
▁accur	-7590
abe	-7591
adjust	-7592
standing	-7593
2","	-7594
arte	-7595
▁stijl	-7596
related	-7597
▁consequ	-7598
flix	-7599
▁lens	-7600
▁skill	-7601
▁wrote	-7602
▁exercis	-7603
▁keeping	-7604
vaardigheden	-7605
cert	-7606
▁cel	-7607
crete	-7608
▁whom	-7609
indingen	-7610
wid	-7611
▁Oct	-7612
▁cred	-7613
gelopen	-7614
▁aspects	-7615
▁parking	-7616
▁makkelijk	-7617
rupt	-7618
▁von	-7619
▁plus	-7620
▁advantage	-7621
kort	-7622
Compose	-7623
▁reports	-7624
67	-7625
kle	-7626
small	-7627
ressie	-7628
▁System	-7629
▁propos	-7630
▁?	-7631
▁120	-7632
▁lijst	-7633
▁3,	-7634
unds	-7635
nesday	-7636
pack	-7637
under	-7638
▁acid	-7639
▁leads	-7640
ontwikkeling	-7641
▁west	-7642
plaatst	-7643
vas	-7644
ises	-7645
▁punt	-7646
▁langdurige	-7647
SON	-7648
mop	-7649
-202	-7650
▁Mag	-7651
▁Sol	-7652
sheet	-7653
▁Great	-7654
▁infection	-7655
▁praktijken	-7656
Per	-7657
what	-7658
▁Pra	-7659
vreden	-7660
▁ziekte	-7661
▁printer	-7662
▁interess	-7663
ba	-7664
dated	-7665
ranch	-7666
▁lijkt	-7667
CC	-7668
rale	-7669
▁Soc	-7670
▁hoof	-7671
▁inse	-7672
ias	-7673
tyle	-7674
▁thus	-7675
▁verf	-7676
Updates	-7677
▁directe	-7678
▁resource	-7679
azz	-7680
bur	-7681
cia	-7682
uls	-7683
:00;	-7684
members	-7685
▁gevallen	-7686
▁historische	-7687
istry	-7688
porary	-7689
-18	-7690
win	-7691
amil	-7692
greg	-7693
▁Dat	-7694
ijdens	-7695
Water	-7696
▁Rome	-7697
▁sand	-7698
anuary	-7699
▁workers	-7700
▁hoofdthema	-7701
▁bloot	-7702
▁smoke	-7703
▁faster	-7704
▁police	-7705
▁invitation	-7706
":0	-7707
stuk	-7708
▁lie	-7709
rukken	-7710
▁grand	-7711
anguage	-7712
▁rekening	-7713
roid	-7714
ranty	-7715
gevingen	-7716
▁advanced	-7717
▁register	-7718
▁barri	-7719
moderate	-7720
▁lunch	-7721
▁maatsch	-7722
het	-7723
atieven	-7724
▁script	-7725
▁instructions	-7726
su	-7727
▁core	-7728
iceerd	-7729
▁California	-7730
mg	-7731
▁achie	-7732
ki	-7733
pop	-7734
▁Mat	-7735
▁kwets	-7736
▁asking	-7737
▁intent	-7738
gestelde	-7739
abilities	-7740
technologie	-7741
oofd	-7742
▁bewijs	-7743
▁oxygen	-7744
security	-7745
▁hop	-7746
▁Book	-7747
▁shopping	-7748
Adds	-7749
▁Port	-7750
Rest	-7751
▁rit	-7752
▁coron	-7753
▁History	-7754
▁military	-7755
▁Americans	-7756
clud	-7757
odra	-7758
▁House	-7759
▁compreh	-7760
▁journal	-7761
▁instance	-7762
feer	-7763
▁spring	-7764
▁brought	-7765
▁maanden	-7766
▁voldoen	-7767
▁transfer	-7768
Fe	-7769
markt	-7770
▁kinder	-7771
▁efficient	-7772
▁ran	-7773
▁geleid	-7774
▁muscle	-7775
▁slight	-7776
________	-7777
▁slechts	-7778
▁Lin	-7779
▁Europ	-7780
▁counter	-7781
▁toevoegen	-7782
lic	-7783
:30:00	-7784
generate	-7785
fact	-7786
▁opt	-7787
▁categor	-7788
()	-7789
Bel	-7790
pat	-7791
viation	-7792
▁outcomes	-7793
bio	-7794
origin	-7795
▁carrière	-7796
▁09	-7797
▁applic	-7798
▁answers	-7799
▁NF	-7800
▁rare	-7801
remind	-7802
▁exists	-7803
letter	-7804
▁performed	-7805
▁succesvolle	-7806
_3	-7807
▁	-7808
e	-7809
t	-7810
n	-7811
a	-7812
i	-7813
r	-7814
o	-7815
s	-7816
"	-7817
d	-7818
l	-7819
h	-7820
c	-7821
u	-7822
m	-7823
p	-7824
g	-7825
,	-7826
:	-7827
f	-7828
y	-7829
v	-7830
b	-7831
.	-7832
k	-7833
w	-7834
{	-7835
}	-7836
'	-7837
_	-7838
j	-7839
z	-7840
0	-7841
T	-7842
-	-7843
q	-7844
S	-7845
I	-7846
A	-7847
1	-7848
D	-7849
2	-7850
x	-7851
C	-7852
W	-7853
]	-7854
[	-7855
M	-7856
H	-7857
?	-7858
P	-7859
E	-7860
)	-7861
B	-7862
O	-7863
R	-7864
N	-7865
5	-7866
(	-7867
L	-7868
F	-7869
3	-7870
G	-7871
4	-7872
;	-7873
V	-7874
6	-7875
8	-7876
U	-7877
9	-7878
7	-7879
Y	-7880
K	-7881
J	-7882
/	-7883
ë	-7884
>	-7885
Z	-7886
é	-7887
!	-7888
%	-7889
–	-7890
Q	-7891
\	-7892
=	-7893
—	-7894
ï	-7895
$	-7896
X	-7897
*	-7898
+	-7899
…	-7900
&	-7901
@	-7902
ó	-7903
è	-7904
#	-7905
ł	-7906
ę	-7907
